[CLS]
[PAD]
[SEP]
[UNK]
[MASK]
!
"
#
$
%
&
'
(
)
*
+
,
-
.
/
0
1
2
3
4
5
6
7
8
9
:
;
<
=
>
?
@
[
]
^
_
a
b
c
d
e
f
g
h
i
j
k
l
m
n
o
p
q
r
s
t
u
v
w
x
y
z
{
|
}
~
¡
¢
£
¥
§
¨
©
ª
¬
®
°
±
²
³
µ
¶
·
¹
º
¼
½
¾
¿
×
ß
à
á
â
ã
ä
å
æ
ç
è
é
ê
ë
ì
í
î
ï
ð
ñ
ò
ó
ô
õ
ö
ø
ù
ú
û
ü
ý
þ
ÿ
ā
ă
ą
ć
ċ
č
ď
đ
ē
ĕ
ė
ę
ě
ĝ
ğ
ġ
ģ
ħ
ĩ
ī
ĭ
ı
ķ
ļ
ľ
ł
ń
ņ
ň
ŋ
ō
ŏ
ő
œ
ř
ś
ş
š
ţ
ť
ũ
ū
ŭ
ů
ű
ų
ŵ
ŷ
ź
ż
ž
ſ
ƒ
ơ
ư
ǀ
ǁ
ǃ
ǎ
ǐ
ǒ
ǔ
ǫ
ș
ț
ȝ
ɑ
ɔ
ə
ɛ
ɣ
ɨ
ɪ
ʃ
ʊ
ʔ
ʰ
ʷ
ʻ
ʼ
ʽ
ʾ
ʿ
ˈ
ː
˚
̀
́
̃
̄
̧
̱
̲
ά
έ
ή
ί
α
β
γ
δ
ε
ζ
η
θ
ι
κ
λ
μ
ν
ξ
ο
π
ρ
ς
σ
τ
υ
φ
χ
ψ
ω
ό
ύ
ώ
а
б
в
г
д
е
ж
з
и
й
к
л
м
н
о
п
р
с
т
у
ф
х
ц
ч
ш
щ
ъ
ы
ь
э
ю
я
ё
ѕ
і
ј
ћ
ա
ե
ի
կ
հ
մ
յ
ն
ո
ս
տ
ր
ւ
ְ
ִ
ַ
ָ
ֹ
ּ
א
ב
ג
ד
ה
ו
ז
ח
ט
י
כ
ל
ם
מ
ן
נ
ס
ע
פ
צ
ק
ר
ש
ת
آ
أ
إ
ئ
ا
ب
ة
ت
ث
ج
ح
خ
د
ر
ز
س
ش
ص
ض
ط
ع
غ
ف
ق
ك
ل
م
ن
ه
و
ى
ي
َ
ُ
ِ
ّ
ْ
پ
ک
گ
ہ
ی
ं
अ
आ
क
ख
ग
च
ज
ट
ड
ण
त
द
ध
न
प
ब
भ
म
य
र
ल
व
श
ष
स
ह
ा
ि
ी
ु
ू
े
ो
्
ক
ত
দ
ন
ব
ম
য
র
ল
স
া
ি
ু
ে
্
க
ச
ட
த
ன
ப
ம
ய
ர
ல
வ
ா
ி
ு
ை
்
్
ಕ
ನ
ರ
ಾ
ಿ
ು
್
ക
ര
ാ
ി
്
ක
න
ම
ර
ල
ව
්
ා
ි
ු
ก
ค
ง
จ
ช
ด
ต
ท
น
บ
ป
พ
ม
ย
ร
ล
ว
ส
ห
อ
ะ
ั
า
ิ
ี
ุ
เ
แ
่
้
์
་
်
ა
ე
ი
ლ
მ
ნ
ო
რ
ს
្
ḍ
ḥ
ḩ
ḫ
ḳ
ḵ
ḷ
ṁ
ṃ
ṅ
ṇ
ṛ
ṟ
ṣ
ṭ
ṯ
ẓ
ẕ
ạ
ả
ấ
ầ
ẩ
ậ
ắ
ằ
ẵ
ẹ
ế
ề
ể
ễ
ệ
ị
ọ
ố
ồ
ổ
ỗ
ộ
ớ
ờ
ở
ợ
ụ
ủ
ứ
ừ
ử
ữ
ự
ỳ
ỹ
ἀ
ἄ
ἐ
ἰ
ὐ
ῆ
ῖ
ῦ
ῶ
‐
‑
‒
―
‟
†
‡
•
‰
′
″
‹
›
⁄
₂
₤
₩
€
₱
₹
ℓ
№
™
⅓
⅔
←
→
↵
∂
∆
∈
−
∞
∨
∴
≈
≠
≡
≤
≥
⊆
⋅
─
■
●
★
☆
♥
♦
♭
♯
⟨
⟩
あ
い
う
え
お
か
が
き
く
け
こ
さ
し
じ
す
ず
そ
た
だ
ち
つ
て
と
な
に
ね
の
は
ば
ひ
ふ
ま
み
む
め
も
や
よ
ら
り
る
ろ
わ
ん
ア
イ
ウ
エ
オ
カ
ガ
キ
ク
グ
ケ
コ
サ
シ
ジ
ス
セ
ソ
タ
ダ
チ
ッ
ツ
テ
ト
ド
ナ
ニ
ハ
バ
ヒ
フ
ブ
ホ
ボ
マ
ミ
ム
ャ
ュ
ョ
ヨ
ラ
リ
ル
レ
ロ
ン
・
ー
一
三
上
下
不
世
东
中
主
之
九
事
二
五
京
人
仁
代
令
会
伯
你
使
侍
侯
保
信
元
光
全
八
公
六
兵
利
劉
化
北
区
十
千
华
南
博
原
口
古
台
史
右
司
合
吉
同
名
后
君
吳
周
和
唐
四
国
國
園
地
城
堂
士
夏
外
大
天
太
夫
女
子
字
学
孫
學
守
安
宋
宗
官
定
宣
宮
家
寧
寶
寺
將
尉
小
少
尚
山
島
崔
川
州
工
左
市
帝
師
常
平
年
府
康
廣
延
建
式
弘
张
張
徐
御
德
心
志
忠
思
愛
成
我
所
手
承
技
政
教
文
新
方
日
昌
明
星
春
昭
景
曲
書
曹
會
月
有
朝
木
本
朱
李
村
杜
東
松
林
校
梁
楊
業
樂
歌
正
武
氏
民
水
永
江
河
治
法
泰
流
海
清
港
漢
無
物
玄
玉
王
理
生
田
白
百
的
皇
盧
相
省
真
知
石
社
祖
神
福
禮
科
空
立
章
第
經
縣
羅
美
義
老
胡
自
興
良
花
英
華
萬
蕭
藤
虎
行
衛
西
言
記
語
趙
路
軍
通
道
郎
郡
部
郭
都
鄭
里
重
野
金
銀
鎮
長
門
阿
限
院
陳
陵
陽
雄
集
雲
青
韓
音
風
館
香
馬
高
魏
鳳
黃
黄
龍
龙
ꞌ
가
고
교
국
기
김
나
다
대
도
동
리
사
서
선
성
수
스
시
신
아
원
의
이
인
자
장
전
정
조
주
지
학
한
ﬁ
ﬂ
##a
##r
##t
##i
##n
##y
##e
##s
##h
##l
##o
##b
##u
##g
##m
##f
##d
##p
##k
##c
##x
##ā
##v
##z
##j
##а
##у
##з
##σ
##τ
##ε
##δ
##ι
##υ
##í
##ī
##ū
##à
##.
##2
##0
##5
##ä
##8
##9
##1
##ड
##ल
##р
##о
##д
##н
##ы
##м
##w
##3
##,
##4
##6
##ü
##7
##ي
##ة
##ා
##න
##q
##ד
##י
##ח
##ו
##ת
##א
##ĭ
##ṣ
##ṭ
##ö
##á
##ῖ
##š
##é
##ž
##ś
##ʼ
##ó
##َ
##م
##ّ
##ی
##ش
##گ
##ر
##ا
##ı
##ğ
##и
##л
##ь
##ć
##κ
##λ
##η
##α
##ή
##ð
##ꞌ
##ç
##è
##ō
##û
##ø
##ł
##ĕ
##î
##ш
##г
##т
##ा
##ē
##س
##þ
##ô
##ن
##â
##정
##μ
##ς
##ʿ
##ê
##ο
##č
##ß
##イ
##セ
##ン
##ス
##ッ
##ɛ
##ģ
##ñ
##ŋ
##β
##ά
##ω
##ν
##χ
##ه
##å
##נ
##כ
##ो
##ट
##ि
##е
##ک
##ل
##غ
##و
##ز
##φ
##θ
##έ
##ρ
##в
##ύ
##ę
##ă
##מ
##ר
##ч
##с
##к
##ì
##ί
##리
##ě
##ý
##क
##ह
##त
##व
##द
##ी
##ं
##च
##ŭ
##ş
##ζ
##ő
##ţ
##ĩ
##ி
##ன
##ḥ
##ù
##ْ
##ط
##ِ
##ร
##ง
##เ
##ี
##ย
##น
##ล
##า
##จ
##ั
##ท
##บ
##ุ
##й
##γ
##え
##み
##の
##ち
##か
##ら
##ã
##ラ
##ー
##ц
##ј
##ǎ
##ė
##ə
##õ
##ò
##स
##र
##ë
##ṇ
##ḍ
##แ
##ก
##ウ
##ト
##ア
##х
##ḵ
##ǐ
##म
##प
##ț
##ḩ
##ú
##ń
##π
##ル
##ハ
##ą
##ョ
##ブ
##ʔ
##ט
##ל
##ן
##ș
##ѕ
##ď
##ん
##ص
##조
##æ
##פ
##ա
##ս
##ե
##ɔ
##ộ
##ם
##ъ
##я
##க
##ட
##ك
##ث
##ŏ
##ต
##ï
##이
##가
##پ
##د
##ὐ
##ж
##ت
##う
##と
##い
##ふ
##は
##り
##ב
##ர
##ு
##스
##ṛ
##ώ
##く
##さ
##る
##ま
##п
##і
##ẕ
##ό
##خ
##б
##기
##ิ
##ด
##ค
##อ
##ม
##ק
##ů
##ส
##พ
##ป
##ะ
##ว
##ź
##щ
##ね
##ắ
##ť
##선
##교
##ż
##த
##ய
##ா
##ை
##ז
##ש
##す
##ب
##ح
##đ
##ס
##ո
##ւ
##հ
##ṅ
##ˈ
##ु
##भ
##주
##지
##ע
##ع
##タ
##ệ
##ṯ
##न
##ʻ
##ʃ
##ː
##ग
##ψ
##ف
##ず
##き
##ق
##ּ
##ř
##ა
##ნ
##ი
##ʊ
##ַ
##ה
##ų
##チ
##দ
##ப
##학
##원
##ǔ
##े
##ְ
##ọ
##ǒ
##ห
##ष
##ю
##ṃ
##ִ
##장
##ư
##ở
##ہ
##グ
##ņ
##ல
##ひ
##다
##ण
##한
##ג
##な
##ド
##ổ
##ض
##ನ
##ʾ
##ћ
##ф
##ª
##ɪ
##ξ
##ň
##ֹ
##მ
##ე
##ლ
##リ
##ُ
##ු
##э
##ু
##স
##া
##ị
##य
##た
##வ
##ẓ
##ू
##ű
##아
##ি
##ক
##사
##ǫ
##수
##ļ
##나
##µ
##ო
##რ
##ി
##ල
##ল
##し
##て
##인
##お
##ǁ
##ḳ
##ত
##동
##도
##ր
##ի
##յ
##ն
##ÿ
##ħ
##ج
##إ
##ন
##ё
##ũ
##ര
##ാ
##œ
##ṟ
##が
##ɑ
##국
##ে
##র
##ს
##ɨ
##ब
##ċ
##ṁ
##ম
##צ
##ى
##ẹ
##ි
##テ
##ク
##ờ
##ġ
##성
##시
##대
##カ
##ニ
##ĝ
##レ
##シ
##バ
##ʷ
##め
##ָ
##ấ
##ḫ
##ම
##ज
##ジ
##サ
##フ
##ロ
##श
##コ
##ガ
##ช
##ക
##կ
##ச
##ಿ
##ἰ
##մ
##ʰ
##ර
##ব
##서
##º
##ツ
##ರ
##ろ
##む
##け
##ế
##ャ
##ソ
##ɣ
##য
##ơ
##자
##의
##オ
##ம
##ミ
##ŷ
##전
##わ
##そ
##も
##ム
##ナ
##ケ
##ක
##つ
##ख
##ḷ
##տ
##ව
##ῦ
##や
##ಾ
##キ
##エ
##だ
##ボ
##고
##ダ
##ớ
##に
##ừ
##신
##ῆ
##じ
##ſ
##ľ
##ﬁ
##あ
##マ
##ụ
##ể
##ホ
##ķ
##ュ
##ئ
##ಕ
##ự
##أ
##ằ
##ề
##ध
##آ
##ʽ
##こ
##ǀ
##ȝ
##ồ
##ヨ
##ῶ
##よ
##ả
##ು
##ỳ
##ầ
##ủ
##ἀ
##ễ
##ﬂ
##ạ
##ứ
##ば
##ŵ
##김
##ậ
##ἐ
##ố
##ヒ
##ƒ
##आ
##ỗ
##ữ
##ợ
##ỹ
##ẩ
##ǃ
##ℓ
##ử
##ẵ
##अ
##he
the
##er
##in
##ed
##nd
##on
##at
##or
##es
##en
in
##ar
##an
of
##ing
##ou
##al
and
##is
##it
##as
to
##re
##ic
##om
##ion
th
##el
##il
##ent
##le
##st
##ad
was
##et
on
##ac
##am
##ec
st
##ro
he
for
##ly
##ur
##id
##ol
##ut
##ot
as
##ow
##ir
is
it
##ve
##ig
be
##ay
##im
##ver
##ith
al
wh
##ter
re
with
that
##ation
an
at
his
's
fr
##ch
##se
##ul
##ce
##and
##her
ch
con
by
##em
you
##ain
19
##ld
##th
##us
her
##ct
##ag
com
##ri
##est
##od
##ers
##ess
from
##ist
##um
pro
se
##un
##pp
ne
she
##ill
20
##ht
sh
##ak
de
su
##os
or
##oc
##ab
##op
##art
##if
ar
##iv
##all
le
un
##ant
##ard
ha
##ate
ex
had
##ity
are
sp
##ould
tr
pl
not
##ap
##ies
##ight
##ere
##ell
##ud
##ore
##ort
pr
##ber
but
this
##ok
##ack
were
##ust
##oug
##ich
whe
##ie
en
##ect
##ear
##ound
##ated
wor
##our
me
##ive
##ge
##ment
##ast
##ong
cl
they
we
##ame
##ip
##ian
##ally
##ia
ab
all
##out
go
lo
##ome
have
gr
af
one
which
do
##ary
't
int
##ine
up
him
##av
man
mo
##qu
out
my
comp
##ous
##ther
201
br
##pt
##oun
##ough
sa
##hed
co
kn
their
who
so
no
ad
fir
##ish
us
##ke
can
ag
##so
sc
am
ro
##ide
##ial
tim
##ub
##own
##ue
##ions
has
ac
tw
mar
rec
##ure
res
##one
##ind
new
also
cont
first
there
##per
##ice
fe
##ord
li
##ace
##uc
##age
after
##ry
inc
200
##ass
when
part
##ug
##ire
##iz
would
ser
##ra
off
bo
its
been
over
car
##wn
comm
bec
##act
other
ev
##ence
into
##ans
year
col
##ater
##og
app
##ach
##ical
##ign
##ang
bl
per
##ree
##nder
rel
time
two
im
te
what
##ked
##pl
##ake
##ely
##ved
them
##ance
##te
##ff
##ile
##ount
18
dis
some
##ade
##way
po
about
fl
ind
jo
will
##urn
##ition
##iver
play
inter
##ick
##ult
##orn
then
more
##ations
##orm
qu
##ib
##00
##ict
said
des
back
##pr
##ild
##ite
##ens
if
how
did
pe
##uct
##able
form
##ail
##ks
##ied
##oll
##ep
##ath
##ory
could
##ond
pre
again
##ings
##lud
sm
sch
##ward
sec
##amp
act
dec
##ents
##ood
par
##int
thr
like
##old
la
bet
only
##we
under
##itt
cr
##ational
##ember
just
##igh
##land
##iss
##ft
##uring
any
includ
##ase
fin
##vel
##ates
em
may
##ious
than
##ool
cent
where
##fore
##ased
##lect
##ors
through
##ited
##au
look
##man
ph
##fer
bu
##ll
gre
str
hel
##ose
##anc
##gr
reg
ear
##ubl
##gan
199
ever
##les
cons
loc
##elf
ass
before
acc
bro
work
##led
your
rem
gen
most
school
##port
now
##oth
war
gu
during
##ons
ed
down
##ily
##form
dr
day
sy
well
know
made
pres
att
##hing
##other
found
##ah
min
get
count
hand
##hip
dist
##ife
sl
##ink
world
##end
stud
ret
pol
##cc
##ery
##enc
call
##hn
##ather
head
while
wr
##als
years
##ished
##ock
##ollow
fil
peop
##ought
##ating
##ason
##ince
op
##io
##ered
follow
mon
##ivers
end
##ican
people
ma
mu
three
art
##rib
sub
eng
fam
char
##outh
long
publ
##oup
##air
##ouse
see
##ween
sur
between
bel
inst
##ss
high
prod
##ving
nor
being
second
##br
way
don
later
these
198
such
many
##ause
mus
##ning
amer
arm
##ix
ke
want
##az
team
even
##hes
cre
spec
around
air
##rop
##ful
gl
##ne
right
##ave
##ular
own
film
set
every
mat
##ual
def
##ics
##til
..
inv
...
pos
lar
met
##are
used
both
##ton
open
##irect
##iel
start
##row
univers
city
ter
##ise
##ys
cap
##olog
##ision
supp
direct
elect
##ost
##omet
num
rele
trans
197
##ral
el
##ative
##ted
##iet
against
##ities
show
state
prov
gener
##ters
med
##ject
four
bar
##aking
house
##pped
##ific
ey
##self
##ank
national
ob
sw
##tain
##ty
##tern
known
##ier
until
##uary
turn
##ever
add
##ale
##up
bre
##vern
che
##ting
say
record
because
group
sing
south
##ently
still
##ower
ins
need
old
##ames
##ull
life
##ph
##oot
university
became
pop
lead
##ont
wom
dif
dep
##ried
our
govern
good
196
since
##ins
north
##ven
##red
##ually
cour
pers
sim
cur
##ork
born
compan
serv
##der
##ts
##ew
somet
season
wal
run
##velop
sign
est
##ann
took
alb
main
##ived
##get
##ross
let
same
##its
##pect
mod
id
each
##ined
sever
united
##ident
family
mem
##ized
much
however
##ures
child
ann
##oy
##ines
soc
##ional
develop
##ury
##xt
oper
american
'm
should
win
##ange
think
##ble
another
##ric
called
make
build
appear
##ield
contin
here
point
name
hist
##ible
##ball
cor
including
pri
17
left
sk
place
home
didn
##ger
very
'd
##iew
pass
states
##ists
red
##ained
##att
##ced
near
const
##enn
##ern
disc
book
aut
small
comple
last
##son
##ised
194
ste
jun
##ark
##osed
rep
return
never
##ina
bus
rece
commun
##ody
##uck
help
##urch
john
chr
music
##amed
10
##stem
land
take
##uction
##ley
##ady
star
conc
going
orig
town
ca
away
several
har
stre
##ov
real
##ik
number
thought
##rict
song
those
##ism
offic
album
##cept
intern
progr
use
care
system
began
ra
eyes
##iam
##und
area
prof
won
195
far
dem
ge
var
tre
foot
pat
##ments
##ling
origin
along
##inc
hum
##ying
following
imp
##ives
mil
##ided
##ural
##ele
god
##ird
too
inf
##0s
div
law
ger
##yp
public
##uss
differ
jan
##ner
rest
##ittle
great
company
##ves
class
series
came
men
west
##bers
15
conf
##ched
design
ent
side
game
##ired
##ged
little
##ister
're
##ott
16
best
eff
##ution
##ued
##ague
##ren
##ash
few
cal
perform
miss
early
released
stand
##ute
##ured
king
played
##ement
##els
##aced
prom
##iving
mid
district
##ially
person
##ness
government
##aw
beh
##by
rev
looked
##ene
award
club
##ants
##ues
tal
det
##ains
water
es
##thing
maj
held
val
leg
went
room
come
organ
find
cle
ju
spe
mill
12
##ility
##be
colle
something
asked
adv
face
##ient
aust
father
##eng
##ately
mag
light
port
##ature
##000
##king
##ital
'll
next
line
##iend
occ
champ
del
tell
black
##min
193
night
##ior
happ
friend
##hen
got
based
top
partic
band
camp
ref
power
##ron
##iting
##ilt
##uced
league
major
former
brit
program
prot
vill
general
list
hal
wee
tour
eu
##mer
support
youn
put
exp
av
pa
##tend
##ane
##day
##aug
##iness
coun
word
##ets
church
does
bas
aug
##ience
county
ext
##ection
##ention
##rap
belie
march
feel
east
contro
##ened
##used
##ically
prev
wat
within
christ
five
six
##ices
##gin
##gest
kill
##ared
##vers
vis
ang
##med
##ages
without
short
##oss
though
tit
oct
##ob
##ime
son
repr
death
station
sen
##lish
##elt
sept
##akes
large
##iter
road
expl
august
german
dri
##aining
why
mark
appro
result
sat
profess
tri
door
##ium
##ten
##ms
polit
local
##hern
september
##ored
##ways
repl
vo
##oci
succ
event
started
##ract
once
11
##,000
192
different
##press
wa
women
manag
fact
##ica
##ology
associ
party
january
##ober
member
##sh
seem
college
mom
international
desc
##bo
sil
children
##ai
poss
body
eas
sol
cer
june
##ides
consid
##ator
october
president
success
resp
toward
##ulation
move
##over
rad
building
##por
must
##s.
##ung
compet
exper
##ats
report
tec
located
##irl
love
##ret
river
repres
hard
apr
mer
191
ep
july
cond
football
allow
times
##ison
enter
estab
named
##mber
york
've
14
##to
post
century
alth
sound
members
fre
single
april
although
due
pain
sal
typ
##ony
13
saw
final
order
##ians
hold
front
squ
moved
nove
opp
##yl
november
##ached
curr
##ces
##ize
white
##na
himself
##gy
feat
turned
ec
requ
educ
december
europ
##side
wind
having
present
sum
pet
built
champions
mother
third
##aster
business
##iven
girl
##hor
##ench
##ards
among
austral
fur
exc
europe
received
park
british
##aim
charac
ant
aff
month
plan
##gether
together
pur
service
##let
big
##less
##ively
level
ap
tem
##han
represent
behind
deb
techn
##ably
arch
##ax
sit
island
felt
served
ele
lab
accord
##ified
knew
##iety
fac
keep
led
ir
##alth
import
##den
batt
rail
mean
young
##hy
things
mind
told
country
often
equ
chang
age
##ering
read
cover
brother
hop
human
vict
really
days
##me
half
##ency
field
mount
project
ran
##ster
febr
phil
proc
february
news
##co
full
fun
##ars
##erv
##ode
sn
command
rom
late
super
##ress
died
##ival
addition
##itions
village
free
##bert
##par
##atic
##bs
2010
##ae
sure
trad
describ
across
might
##ham
conn
ho
resear
dra
##que
become
bur
attack
##ither
##oint
##ances
incre
##ograp
according
alm
##aff
##ission
games
iss
##rod
##ected
street
cat
given
common
grand
army
fall
wall
##eder
depart
wanted
non
special
##che
canad
##ring
fire
story
ide
##ump
##ences
lim
##omin
##mb
geor
gave
sold
2011
meet
histor
championship
vers
##iod
always
enough
history
dev
ground
##ned
lang
##aken
##ese
ii
net
published
##ief
collect
sent
hands
inform
prop
rock
others
2012
hour
making
cast
##irc
##ple
constr
stat
court
##rew
##ality
##idge
species
heart
dark
mor
ship
##ization
author
##ze
hall
round
vol
##yn
##ows
included
##ru
woman
office
less
##sw
include
mal
opened
##cil
##ches
hon
##osp
interest
lost
milit
##onom
period
seen
effect
quest
continued
dam
bill
ten
better
heav
control
wasn
mot
track
##ots
cult
voice
pal
past
english
2013
2014
vi
##res
cross
##ries
##ipp
##stand
central
dav
center
##umb
nothing
million
2008
give
2009
further
low
san
##ones
announ
press
test
soon
gold
french
nort
live
##apan
##ove
##ching
30
grow
using
crit
development
almost
tot
##iously
##estern
##augh
init
fell
##ara
ple
instit
##oke
social
##ert
2015
circ
grad
division
process
##ama
quick
william
invol
population
bed
##yal
##.s.
community
##empt
japan
tele
council
returned
##ee
upon
sout
##ndon
flo
original
mr
##ney
worked
langu
broad
living
cup
career
russ
##ma
dest
##ising
engine
##oney
##ha
##urg
25
works
2016
##itor
case
wood
##ula
anything
##aces
able
hig
##itten
##ration
##ready
looking
2007
sam
research
##ilar
already
ve
##ape
activ
prim
step
lat
sel
pract
close
##vision
nat
##aps
190
lou
thing
##utes
jud
view
force
hor
enc
working
important
sun
##ument
2006
london
hot
strong
##bed
##ream
##ata
establ
##ead
character
##ford
yes
week
##lu
##ploy
coll
role
vir
students
claim
conv
jack
##iled
stay
terr
established
oh
##ille
##rie
bal
trav
invest
position
fight
ren
u.s.
clos
##uted
sett
begin
rich
##yle
arri
least
lear
##ler
military
##dle
green
##work
mur
mass
cam
various
similar
##ases
##ming
##orts
ill
2017
title
refer
##esh
##ana
created
wife
proble
moment
##line
leav
kind
indust
ord
jour
econom
priv
done
##af
written
##mp
unc
yet
##ike
western
##adem
director
clear
taken
bad
##ament
##ense
chair
##ops
sug
##here
mich
du
attempt
proper
married
board
education
je
comb
inside
player
##app
daugh
##yc
nav
##ivid
course
defe
aw
nec
joined
pul
189
21
##lo
##ps
blood
##ption
##iding
host
##lin
##sel
dou
rout
##rote
civ
appeared
##go
ital
di
que
cho
promot
produced
##ino
fa
arr
today
announced
followed
##lex
##ges
region
##aper
political
mun
2018
academ
express
arg
ver
##ories
##sc
mc
sho
##ength
hit
either
exist
base
appoint
gun
television
fig
attend
health
##ction
couldn
someone
wrote
admin
tom
hill
vot
ident
##raft
##eth
reached
towards
outside
secret
ok
individ
lord
instead
society
##rown
desp
##xim
earl
prob
pay
deep
##aut
total
vide
words
police
fund
heard
hear
##imes
sus
finally
sle
royal
particular
cell
##hel
foc
suff
union
ur
wo
battle
cut
radio
popular
er
taking
princ
phys
change
##ogn
described
bit
production
england
mult
##ample
epis
fail
fem
24
##epend
considered
##ids
earth
site
den
information
relations
ber
##acy
understand
##aged
independ
spir
food
answ
##burg
leave
everything
introd
eight
department
friends
##idence
hur
tur
mad
dead
##sequ
cost
money
association
##iec
break
anim
commit
summer
trying
indian
recogn
above
##dom
review
agre
civil
james
hy
slow
official
188
##ka
modern
election
hol
entire
boy
##str
##uel
brought
fif
##uce
##ush
22
stop
##head
saf
space
los
bank
deal
product
jer
pot
##itted
certain
gar
tried
feder
sto
middle
playing
2005
doing
corn
lot
match
republ
dan
##gn
uk
founded
##cast
laug
##ips
sex
##iment
ru
commission
##ston
bi
decided
else
##imin
esp
language
##oul
appl
##ky
##fully
norm
stood
blue
rather
##erc
months
paul
influ
pan
##hic
##ald
##tered
chief
##oming
professional
aver
table
stri
hair
particip
roman
version
tradition
##ael
northern
##icip
##bor
fort
remember
daughter
administ
mater
assist
##aching
services
floor
seven
ball
finished
morn
esc
##yr
adm
2019
southern
186
mart
david
##itive
23
##ucted
thom
##ended
hosp
ham
##ico
market
example
dro
coming
despite
seemed
deg
##ius
struct
america
mel
india
##fic
##hib
sea
tou
george
##olution
expect
##itting
feet
maybe
says
##ays
european
quickly
##nal
eventually
instr
##airs
relig
cop
##ck
gradu
##ocr
rob
doc
accept
employ
formed
suggest
needed
##eal
fut
self
believe
avail
tar
##medi
occur
situ
australia
soft
separ
100
calif
aud
shar
2004
rul
hun
term
video
lif
##selves
possible
der
morning
californ
arms
recorded
tor
##ville
fest
##ological
doct
minutes
sour
##ett
brown
developed
tro
##ecut
##ili
##of
##uth
##iff
release
question
##anced
##band
obs
187
muse
hom
##pper
france
hous
minister
areas
california
dut
##ishing
throughout
sem
idea
stra
##hod
training
reason
##omb
nar
##ceed
##cer
lu
jew
wonder
phot
probably
##pping
surv
coast
closed
reb
##uff
fav
bir
forces
signed
ye
killed
fore
##ging
scre
##hold
prem
##ox
science
race
alex
mary
lake
##ded
ener
elected
##iers
bring
##ening
speak
lay
walked
##aint
signific
running
sud
treat
whole
fle
mess
contract
remained
##key
##ude
##val
angel
produc
discover
liter
ps
events
pen
usually
added
nod
##ship
getting
##oon
##read
##reek
st.
respect
pun
sometimes
hen
##ators
bow
26
constit
appointed
study
museum
##icked
bay
swe
debut
##ensive
laun
##field
sand
mic
##ential
rac
28
reported
forward
##ki
material
roll
ach
sir
27
originally
talk
available
books
##ises
jes
points
##istic
impro
placed
##arch
canada
hours
env
2000
pulled
##cher
##ya
cand
novel
##aign
##ech
hospital
fear
currently
committe
forest
##ination
##lement
private
access
respons
##erous
railway
records
current
spirit
hus
herself
##ena
except
##ference
seat
abs
municip
wid
style
##acher
construction
##elled
stage
walk
formula
contrib
deter
bat
campaign
kar
mouth
fill
piec
sav
means
specific
tv
thus
viol
media
plant
bene
##asing
##ication
eastern
sor
##oph
##omm
regular
bab
type
##enty
immedi
##ners
fing
##uit
anal
future
imm
master
songs
##ique
##enced
subject
##fort
action
everyone
neg
espec
##wood
true
burn
longer
captain
leading
teams
actually
comput
especially
centre
involved
##eter
##room
2003
cann
ul
alone
##gress
magaz
mac
coup
energy
try
##roy
franc
quar
range
lower
capt
average
bud
beginning
schools
breath
itself
##ca
lin
trib
changed
shot
##elling
passed
hell
acqu
##ushed
designed
democr
route
50
beaut
draw
model
box
eye
##olic
saying
polic
##ago
span
journal
key
travel
guard
##icated
christian
object
michael
decl
kingdom
##iron
ce
clim
anc
reve
network
##reg
chap
kept
##essed
##ites
##ipped
method
wide
features
relationship
oly
##isc
staff
rights
##mar
##ilities
significant
tex
natural
##my
##ability
inn
theat
bul
dig
committee
##ny
mix
parents
##.5
trust
parl
capital
##rian
hu
fer
coach
stone
olymp
ben
##iction
##ested
mas
emer
performed
van
germany
2002
movement
##ript
archit
australian
##enth
29
washing
spent
##omp
mir
hope
architect
inj
job
account
achie
wild
performance
exam
china
writing
qual
players
completed
##urity
robert
lived
groups
##anch
leaving
##hood
tow
##ining
sister
card
regard
matter
2001
##fact
subsequ
##rican
sar
tourn
##bour
thomas
fair
prior
largest
##aled
185
happened
et
size
themselves
environ
goal
colon
gard
surpr
bridge
myself
lik
beg
neigh
##van
directed
mex
##itz
gone
pict
mov
fly
##ban
sudden
surf
onto
festival
##apt
previous
##round
complet
sleep
fourth
loss
plat
stopped
consist
##atory
institute
section
diffic
##reat
##ugg
flor
difficult
##itch
##men
##fect
frank
path
chann
##asons
raised
##ification
##cent
studies
speed
##oring
dream
tax
##craft
allowed
mission
whose
arts
parliam
countries
artic
cath
##igned
medical
bes
ask
meas
##where
personal
bord
extend
surround
province
##zy
provided
attention
sens
##hem
##iced
pred
female
libr
##oud
##ken
ol
apart
stated
princip
parliament
##ume
professor
##arily
##semb
mr.
prison
heavy
husband
liber
leaders
federal
focus
earlier
hund
peter
episode
wil
length
##ari
higher
mach
washington
##ecutive
includes
officer
smiled
japanese
oppos
##amb
degree
makes
anyone
##isl
hundred
data
transport
entered
doesn
smile
##use
concern
##ey
quite
##ateg
investig
cry
ban
##olf
charles
##aries
##het
pack
purp
##ught
scient
glass
##erve
##play
cab
wouldn
31
##inese
bott
grant
academy
chart
interv
replaced
broadcast
sports
magazine
cit
flow
provide
parts
featured
transfer
below
occup
fine
wear
##iation
color
pow
destroy
eth
sense
40
##rupt
##ij
die
meeting
##ades
emp
security
independent
peace
leader
##ray
##rief
lie
mont
disapp
feeling
##ores
##ych
chall
competition
##agon
shows
##gar
ended
cust
##aur
problem
chinese
##ex
gas
environment
technology
scott
hung
assemb
organization
##fl
##anned
##ift
ready
##uk
conference
standing
studio
##wor
##usion
doctor
experience
couple
systems
moving
victor
mountain
##ida
ful
lives
##itar
connect
##rica
whom
winning
cold
##rael
1999
aircraft
##ros
tun
##for
cred
##rect
##berg
fast
tel
discuss
approxim
weeks
pick
##ta
teacher
louis
dar
mention
mos
nearly
senior
lack
standard
opening
henry
phone
commerc
complex
kiss
##aded
valley
##ees
##hest
squad
##gs
##ply
##ibility
russian
dom
jesus
tournament
whether
purch
immediately
israel
rose
wrong
shall
brand
poor
##oid
nature
foreign
##ams
industry
compos
##la
domin
##off
financ
owned
amb
##zz
successful
consider
protect
##ending
cas
previously
related
introduced
frequ
jose
beat
##istan
train
awarded
##erson
##wards
complete
##ples
##irt
cele
##ously
paper
##bc
##iling
republic
farm
##20
management
##tt
##haps
household
penn
maintain
##ications
canadian
buildings
anti
184
##atives
imag
governor
truth
cra
takes
celebr
critic
visit
enj
##ental
awards
slight
ven
rap
dad
##ander
disp
straight
forced
covered
od
birth
thinking
##iful
richard
primary
##riage
via
carry
paris
perhaps
corpor
##ests
1998
nodded
##aves
individual
##gen
arrived
practice
##kn
trade
girls
pil
##ga
pull
##ilies
##ledge
ath
##utions
date
twenty
student
grab
spanish
##izing
##nes
##inct
starting
compl
okay
##ify
exhib
bag
italian
comes
distrib
##ension
virgin
active
##light
kh
cause
##board
##ession
##va
luc
ris
drive
occas
##sey
doub
unit
##lam
establish
helped
artist
##ented
limited
conserv
emb
transl
meant
skin
silver
react
detail
##ket
places
weap
touch
##com
candid
nine
##tim
##ding
km
giving
decision
##ground
africa
economic
property
queen
legisl
rain
ox
##istry
##abor
collection
##.1
smith
attended
families
psych
##back
document
##rated
1996
gall
##mon
brief
##uals
required
threat
operation
crow
da
slowly
approximately
##ria
caused
congress
films
offered
generally
commercial
african
bey
vehic
##aked
gal
##ker
##pre
shr
exact
demand
sect
##antly
bound
1997
wait
operations
mec
ago
##erved
enjoy
traditional
lines
cens
managed
schol
therefore
##aker
##ocks
##ope
evidence
flight
##hi
mut
##urs
pac
spring
francis
channel
minor
kit
library
multip
becoming
window
rid
quiet
holding
bor
ign
tree
bell
##ba
##ols
unl
cannot
ta
##oles
spot
necess
mostly
theatre
structure
jump
culture
soul
demon
##ishop
syn
dang
##ette
figure
direction
spl
##unt
a.
caus
##abit
nomin
watch
manu
nation
thir
scored
simply
manager
send
completely
##well
catholic
##ims
##onse
und
caught
shoot
carried
gro
jim
older
computer
amount
wing
##ires
meaning
store
please
create
studied
distance
initially
ess
##ocked
##iences
youth
tas
kr
opt
concept
guy
remain
##dy
honor
ton
thous
historic
thousand
##teen
##ona
##edy
dr.
ire
lady
bird
whis
perfect
native
sant
##ios
talking
saint
rub
custom
1995
runs
convers
determ
manufact
sov
attract
believed
deliver
medal
cyc
newsp
response
regional
##west
replied
subst
voc
rang
##the
target
##rd
##chen
associated
foundation
hadn
carol
watched
##aned
highest
atl
shut
names
suc
belong
trail
1992
chic
##lands
drug
religious
##odes
issues
1994
noted
block
##ils
##antic
surface
ice
##ror
##itation
##yan
##iant
##body
soviet
##idents
labor
##ym
183
prec
drink
##aches
##ician
din
screen
problems
ireland
suddenly
##ography
beautiful
adj
companies
texas
male
corner
legal
dance
listed
chance
location
##ala
reach
##ano
victory
altern
sorry
plays
navy
particularly
defeated
contact
##ulated
numerous
waiting
ros
##oved
jul
represented
castle
appearance
answer
##porary
mis
##ek
quarter
happy
beyond
terms
airport
likely
sad
metal
##era
knowledge
secretary
##umn
issue
##wh
adop
horse
crew
##more
changes
square
nick
movie
source
ring
financial
stars
kore
##ware
additional
##etic
##aped
##vey
percent
kid
##ients
enem
##ien
##ura
##leg
increased
continue
firm
iron
spoke
hug
text
share
assembly
tear
chest
cro
insp
chem
pu
e.
minute
policy
reflect
register
shook
##za
il
sac
uns
edge
musical
interview
##har
prince
highway
remains
grew
expand
##vin
directly
citiz
##nel
mine
tall
pret
failed
##road
pap
upper
1993
##mit
##ortun
prep
famous
annual
basket
gaz
zeal
faith
stories
##anda
sky
artists
opportun
larger
##ris
administr
double
1990
ancient
##uments
yell
termin
strugg
1991
temple
launched
situation
hotel
theory
physical
neck
chicago
##roll
appar
winter
thank
activities
arab
##ole
dropped
plans
oil
boys
##ems
results
stad
pros
##icket
##ini
##de
majority
##itude
pray
lic
writer
continu
units
looks
agreed
yeah
swed
##rial
mechan
##olk
empire
executive
##umed
ba
sitting
emot
ray
marriage
##oo
rank
##heast
census
shoulder
ded
##wr
##.2
##asc
temper
letter
mist
obtain
##ita
comment
bod
nearby
address
inte
soldiers
glob
ell
##ibly
joseph
shown
##ola
championships
fellow
bob
##ada
singer
offer
bac
ash
favor
contr
expected
charl
counter
rural
trees
editor
scot
##tr
##ja
eat
characters
spread
exch
gather
guitar
miles
ens
cases
electric
stock
##bing
pit
showed
selected
municipality
extre
cham
##.3
learn
##ani
##cy
justice
warm
contem
arrang
##ado
##ota
revolution
filled
##oper
##isions
##iny
##quar
feature
sev
##isted
##lict
##ograph
##venue
scene
reform
subsequently
confir
##cend
print
##vert
normal
isn
respond
recent
zealand
houses
goals
##orpor
ah
trou
serving
brothers
##itory
piece
greater
edition
forms
jac
bright
##oma
administration
nin
hang
weight
bear
platform
georg
safe
lips
discovered
remaining
presence
##atively
fix
angeles
contains
susp
purpose
join
greek
##ety
storm
defin
ram
1989
estim
behav
clean
freed
mexico
##aught
programs
entertain
dun
athlet
increase
cultural
beach
##ties
haw
wound
tra
log
goes
whate
gh
status
simple
rate
whatever
entr
##ii
autom
historical
##inary
function
skill
progress
variety
##iance
supported
forg
separate
claimed
pretty
carl
##omes
challen
italy
repe
martin
magn
ast
fal
ones
j.
dise
##rel
tight
overall
poet
##ingu
##igan
##iles
commander
ordered
fifth
value
dog
spr
operated
35
philos
needs
seems
##isher
eld
presented
dim
wit
adult
mob
agric
score
individuals
dyn
worth
memor
ut
require
stadium
trop
##hu
retired
murder
holy
prime
growing
collabor
1988
##aph
choice
display
##lor
##onic
##astic
##aling
##idae
##othes
serve
gri
agricult
##ables
suit
cou
sequ
integr
baby
irish
##bi
thin
reading
jos
purs
sin
slightly
resour
##ule
draft
##house
##ero
elev
responsible
##aily
brig
ahead
recording
rat
laws
cool
rule
bishop
##ella
fighting
referred
sight
appears
tracks
save
seeing
virginia
##oned
##rain
closer
workers
easy
cook
walking
authority
influence
troops
sort
matches
ability
neighbor
removed
islands
mah
basketball
russia
fish
cd
daily
sched
coff
promin
##ci
oce
democratic
pair
increasing
diss
sport
fingers
multiple
##ault
motor
note
yellow
traff
border
latter
braz
##une
uses
walls
ships
code
numbers
cities
improve
jewish
broke
ways
bon
##acing
indic
label
expression
shad
headed
earned
assistant
##alled
levels
os
branch
##tar
charge
##uries
1987
officers
leaves
legs
60
##eed
##ef
tower
ly
succeed
##ellig
lies
paid
impact
evening
##inal
##rid
inh
##ques
wel
florida
hat
impress
pra
cart
planned
##rol
poly
quality
defense
conditions
kitchen
ultim
iran
exactly
##yer
dress
serious
memory
brain
questions
181
##ste
1986
watching
tenn
mainly
##ylvan
junior
##eds
positive
whisper
picked
columb
nations
recently
mcc
##ancy
daniel
image
##gu
guess
shel
narrow
judge
fresh
stepped
extended
##ales
categ
garden
##isation
lee
recover
empt
revealed
obv
##ote
smaller
1984
benef
concent
##ucle
##wise
##.4
##bon
laugh
provides
chairman
parish
medic
##ider
potential
laughed
drum
era
resist
approach
partners
joint
max
broken
wed
disappear
controll
composed
lun
products
##iro
##ements
##down
effort
##ylvania
highly
global
##ram
##mark
row
##iger
windows
hurt
intellig
##rick
##nday
fuck
1,
thanks
fro
##inn
bomb
i.
1985
campus
corps
lit
ble
##arian
stan
agreement
islam
1980
##mas
d.
##eless
##.7
nice
hero
growth
none
fat
##.0
bath
kil
organiz
treatment
rules
mayor
engineering
##.6
##unk
fully
acquired
##orter
sher
dry
stations
##ev
strength
rug
hind
article
symb
throw
analys
##cel
supposed
mentioned
seasons
cars
champion
olympics
mand
baseball
wales
crowd
pacific
territory
cancer
##wa
vice
extra
anth
elements
encour
brazil
lad
trip
regiment
shortly
link
powerful
snow
tend
mike
##greg
##aging
##mond
##otten
proposed
emper
thoughts
headquar
initial
##azz
##iverse
intended
pressure
az
taught
##kins
penns
##aming
turning
industrial
rod
##ped
estate
page
webs
scen
electron
yourself
producer
flat
##ashed
conflict
rot
##cious
jon
condition
drop
newspaper
accepted
competed
##set
ocean
capac
##isters
scr
creek
sig
search
19th
happen
machine
thro
weak
sweet
##laim
eg
necessary
initi
##ockey
golden
luck
height
risk
pushed
spain
drag
##iana
edward
cells
noticed
##ato
nucle
##come
motion
effects
comfort
imper
mort
aband
infant
check
coal
##lus
ak
activity
rand
pennsylvania
heat
##illy
##iring
##ias
steel
digital
1983
##hire
##ipl
bol
consists
achieve
##ighter
destroyed
na
safety
vote
##ati
produce
##arm
acting
gives
graduated
bron
escape
musl
eliz
actor
britain
pak
prize
drama
finish
bang
thick
sword
bottom
pleas
aim
cooper
web
freedom
stared
1982
conduct
sym
micro
perm
conver
notable
speaking
hyd
equip
##.8
ministry
constructed
realized
sides
twice
tam
tan
cabin
doll
promoted
##gers
##uten
##da
##ulations
seconds
protection
younger
online
##igr
tells
##gypt
prevent
les
feed
suggested
boat
alongside
vac
1979
latin
picture
citizens
writ
settled
incorpor
182
easily
##50
animals
egypt
uncle
efforts
urban
1972
compared
cub
##bury
magic
unable
flag
##och
##wide
dutch
yard
perman
s.
pointed
emperor
mountains
ped
prote
##ko
correct
iv
##abeth
crime
scientific
funct
##iest
issued
huge
fleet
elections
recon
write
##rif
basis
180
element
jones
##osen
owners
##any
philipp
m.
primarily
damage
rough
1980s
learning
cy
##ira
content
##.9
recognized
frame
reality
moon
32
crown
planet
deput
price
genus
equipment
##ancing
##ushing
projects
##bre
colour
wants
andrew
vent
joe
1976
losing
grade
sab
wheel
stret
rapid
##shire
##rey
subs
enemy
pier
poll
##eper
maxim
##ador
becomes
1974
shout
administrative
1981
creation
script
dism
exchange
sexual
##bl
types
rear
1945
gets
clar
roof
1970
1968
owner
philosop
##izes
cla
coffee
loud
mixed
wrest
interact
obl
knows
gent
##nam
pattern
transferred
##wan
1975
officially
animal
residents
restaur
drew
1978
knowing
telling
ow
##oe
eag
advanced
##oses
teaching
supre
singles
scholars
loved
##book
withd
marine
lieuten
sell
##iot
paint
bought
receive
accomp
provinc
flying
returning
poland
##pe
grabbed
1970s
##icks
sons
avoid
suppl
sales
stuff
consum
gate
##hol
##zen
##ipe
kids
rh
occasion
fit
traffic
agent
steps
sounds
carolina
advent
humans
##iber
laid
secondary
iii
defeat
hockey
pad
anyway
entrance
academic
wish
accident
transform
##agn
split
occurred
boston
contemporary
strange
##bridge
buried
typically
ax
##enger
##ription
amaz
trial
grin
##vi
municipal
c.
compr
tears
settlement
prominent
hid
##ifying
1973
analysis
capacity
racing
aid
candidate
##ila
learned
rise
chosen
cerem
##iy
##ón
bodies
marc
36
##owed
##ux
scotland
appearances
##hens
jean
b.
1977
albums
surrounding
corporation
diam
20th
spect
weapons
bass
##icient
township
implement
##win
alive
divided
planning
prepar
declared
witness
jeff
orche
combined
virt
grey
republican
##anna
lieutenant
follows
driver
calling
explained
1st
empty
affairs
literature
yards
ken
agency
depend
crimin
##itan
marsh
##icted
##encies
1971
williams
##athan
##uts
reserve
179
ari
formerly
evil
1969
clothes
bond
leadership
grass
distinct
listen
gab
entertainment
fought
avenue
ori
experiment
rome
silence
demonstr
##cing
haven
suffered
ga
recomm
johnson
##ulf
pieces
focused
resc
nic
captured
critical
partner
proceed
assigned
titled
jackson
kent
##tery
##atures
memorial
##istics
flood
refused
dedicated
opportunity
portug
##oted
plants
calc
##don
##town
syd
message
francisco
actions
dial
connected
answered
jam
solo
formation
##aly
bowl
existence
##c.
commonly
catch
disease
weather
organized
gained
scale
continues
beside
##oor
kenn
tail
handed
vari
1967
reject
neither
knight
shared
wis
purchased
resources
las
##iano
operating
##iday
##uan
##kin
conducted
vess
fash
unkn
##e.
cru
contest
##aved
80
##ici
elizabeth
##illa
asia
##fri
##cl
scar
faced
software
kat
website
pakistan
chris
##ading
##oms
spok
offers
senate
supply
##olved
doors
resident
participated
renamed
cloud
##stone
1990s
adam
applied
##ivity
shop
basic
fox
1960s
##hl
compar
founder
conclud
americ
##gian
larg
understanding
constant
descend
powers
ker
naval
brook
##resp
buy
kel
begins
railroad
facilities
desk
ib
map
cow
vision
thirty
semi
unique
p.
alexander
contain
measure
generation
##rier
##ali
1964
##burgh
musc
winner
widely
adopted
##ipping
dur
sydney
rugby
comedy
ira
letters
painting
tay
##ds
trouble
bern
wearing
##oral
clearly
##oked
bbc
terror
labour
mathem
combat
##oration
worry
possibly
##ansas
religion
polish
##ji
notice
setting
protest
anne
communities
33
##gend
fashion
retire
largely
fields
allowing
confirmed
passing
elimin
rab
pock
##aya
mit
sick
reports
battal
minim
##adel
michigan
##inity
cert
supreme
wolf
barb
chamber
habit
45
newly
languages
opera
politician
jersey
palace
medicine
determined
bh
scul
matt
instrument
peak
headquarters
tong
prefer
duke
identified
sources
alt
##ulate
##jo
principal
shirt
featuring
armed
ward
stayed
doubt
unknown
concer
##attle
vic
reaching
vehicle
hyp
challenge
cav
spons
liberal
gang
1965
albert
##force
conversation
70
parties
bull
shape
favour
swim
som
ohio
speech
internet
columbia
distingu
victoria
wealth
reviews
advant
technical
reasons
clubs
audience
pin
##aka
ron
concert
hey
honour
calls
1966
twel
tonight
classes
##ela
reduced
opposite
##rical
granted
consequ
turns
format
finding
missing
infantry
select
alle
shif
models
detect
clin
##onents
extrem
1944
##stein
illust
viet
hay
brad
rein
serves
ideas
scottish
500
unf
twelve
keeping
inspired
exec
arth
##usc
housing
##ingly
##stra
deputy
actress
##eness
core
1960
##unte
marked
##see
wet
providing
killing
##een
gon
observ
relief
##met
column
##ora
##war
##respond
unlike
##bit
legend
correspond
##uled
zone
creating
guys
roles
dinner
jenn
##iform
facility
experi
ko
georgia
streets
prepared
squadron
##ube
guest
solid
volunte
oak
remind
sixth
orders
##iliar
wave
pound
volume
cem
impl
fant
claims
##onent
sear
harm
##ordin
glad
##under
plate
accompan
acts
resulted
gray
cin
seats
income
journey
premi
advis
anton
critics
aspect
repeated
propos
politics
heads
##mann
grace
ts
##itage
throat
respectively
crack
survey
finger
90
controvers
2nd
##tic
intelligence
sculpt
falls
task
positions
attacked
##chester
jr
notes
ott
surprised
satis
holds
driving
indeed
gene
guns
silent
estimated
wars
attacks
lands
##bel
opin
##friend
emerg
##sen
figures
billion
effective
cloth
independence
organizations
affili
hills
sha
spiritual
christmas
kick
wine
connection
##usted
surprise
premier
##ses
belief
##time
steve
kir
sust
chapter
##raid
tone
hosted
##hr
advert
rever
expanded
etc
interested
defined
ukrain
hors
##nic
heritage
##asty
fold
imperial
towns
sarah
abd
tru
waited
34
joy
spend
explain
##awa
designated
##put
greatest
causing
scream
situated
advance
ment
lew
lect
whispered
util
##ropri
cricket
allows
opposition
berlin
ty
argent
##ogue
dipl
fab
harv
##uing
##onia
households
background
fiction
consult
sr
constitu
teeth
##ione
otherwise
environmental
entirely
##mad
existing
##pected
lose
duty
1963
mm
##iga
chec
resulting
authorities
desire
afraid
##estic
##ooth
1962
kong
pilot
##uses
certainly
performing
##right
cris
1942
sites
episodes
##works
materials
ka
##ensity
jacob
seg
pictures
neighborhood
injury
remembered
##ić
naz
appre
mrs.
##mes
hong
pill
##pa
##ugged
hes
gain
heaven
kim
theater
sharp
officials
relatively
wer
leaned
jazz
priest
entry
restrict
##rit
aer
encoun
##ez
##ua
##igg
attempted
queens
buck
absol
##itled
##onto
##oman
ranked
economy
shoulders
h.
nominated
aftern
ending
lights
apparently
patients
##urb
circum
##g.
darkness
##achus
appeal
fans
ends
architecture
##lad
sunday
##lec
visited
apartment
##urance
reference
turk
constitution
##orrow
ultimately
greg
1948
lind
gram
emph
heavily
wondered
stick
alternative
calm
nuclear
admir
nap
rum
theme
nose
showing
strike
folk
difference
truck
methods
##water
lap
obtained
permanent
ride
##inois
##lers
ali
details
rav
budd
ic
glanced
tomorrow
distribution
occupied
sed
steam
expans
titles
scoring
starts
asian
climate
1941
kal
jane
horn
2020
facult
advoc
threw
representatives
usa
auth
tast
achieved
behavior
##oti
negative
instruct
fuel
maria
tu
internal
defend
##ologist
simon
1940
##how
wooden
##etts
frequently
##ropol
wings
invited
portion
sets
drawn
cass
succeeded
##ns
quant
##uls
santa
illinois
besides
tank
##asy
trains
waters
carrying
rif
##asts
bc
asking
sciences
attempts
representative
blind
por
regions
iraq
##cho
holly
tony
arrested
hide
##ington
##tering
1946
aware
##lyn
bun
mathemat
cemet
circle
phase
exerc
##rison
cemetery
ll
universe
equal
rare
cz
reaction
1961
teen
abandoned
statement
exped
1943
incident
violence
##las
gi
underst
w.
##can
fan
soph
doug
flu
footballer
lor
harry
olympic
chose
beneath
clock
dor
stom
chain
eric
oldest
classic
##enna
invas
pure
##lets
forget
credit
falling
grav
dub
americans
jur
trained
1939
chuck
shell
massachus
von
performances
warri
##ternal
chemical
##ih
regarding
spin
dangerous
##urer
1956
skills
wra
##iat
satur
##aver
strang
cler
criminal
massachusetts
##ava
guards
lying
orange
finals
atlantic
knock
38
##ruct
taylor
colonel
##uge
afternoon
##bourne
request
selling
northwest
##anth
##icate
identity
subsequent
receiving
conservative
##wal
educational
depress
##fall
65
hearing
strateg
shit
##born
toronto
pool
plus
fc
interior
familiar
nam
vocal
forth
##oking
arthur
mile
barely
sche
brigade
concerned
vehicles
inner
contained
worse
##fa
somewhere
##rich
wilson
jay
attorn
##sk
oxford
korea
investigation
1947
closely
##amin
rooms
##ighth
##acement
37
shock
homes
controlled
thor
1950
lifted
cant
##lusion
merch
fame
##kend
convention
dram
signal
asks
supporting
##adelph
178
camer
promotion
sought
cinem
1958
han
birds
om
r.
recru
##eral
pale
communist
anger
finds
stomach
lane
advantage
mental
gaze
inher
decor
emphas
1959
sighed
manner
f.
cos
versions
##isa
teach
##bec
nether
philadelph
bronze
transm
sid
missed
excell
centuries
ghost
wake
imposs
plot
conscious
briefly
uniform
##worth
treas
classical
visual
observed
philosophy
application
weapon
thousands
##apes
crossed
impr
defence
cha
##eman
battalion
sector
philadelphia
unless
specifically
actual
failure
passenger
stephen
southeast
lyr
##eline
usual
##acks
##osis
dv
fu
approved
nep
entitled
1957
stup
angry
jews
ku
swedish
proved
graduate
mobile
rolled
covers
##char
analy
##rupted
jason
cryst
gallery
##rate
dust
starring
stro
articles
helping
kings
gentle
alliance
factory
liqu
craft
affect
approached
hole
programme
stands
raj
lt
funding
developing
budget
mig
employed
struck
##akers
profit
images
flowers
nerv
bom
promise
weekend
inters
sale
aren
##alu
##inson
standards
shield
##aints
hoped
resistance
##umbled
spell
##tle
gil
##kes
leon
##anny
staring
bedroom
villages
##a.
3rd
extensive
restaurant
singing
teachers
hidden
##án
fired
portray
ontar
attrib
chur
lock
##itors
communication
dressed
pocket
unus
tag
limit
multi
ot
adapt
faculty
##ads
writers
experienced
##otyp
moments
##ws
grown
races
##fr
literary
princess
shaped
ontario
launch
publication
mans
metropol
temperature
##chers
##ls
dragon
liver
liked
formal
drove
brian
i.e.
##umes
##father
1955
stream
opposed
decre
examples
roads
##ographer
negoti
documentary
bure
importance
offices
gor
1949
mexican
vel
institutions
##arr
bringing
##utional
retirement
putting
surre
items
1952
##igen
expansion
containing
bapt
admitted
truly
blank
flash
votes
orchestra
muslim
decades
bible
##rig
extremely
hydro
northeast
handle
pope
shadow
rib
myst
fred
districts
##vis
orth
properties
worldwide
1950s
domestic
##elle
contrast
guide
smell
commissioned
##weight
maximum
##laimed
choose
##ules
##essions
##iques
agricultural
##while
fruit
e.g.
cave
agree
copies
42
1954
assumed
interp
category
founding
alf
relax
##rete
cad
gay
horses
expressed
baron
buff
vamp
billboard
brick
korean
evolution
lam
territor
landsc
derived
sty
understood
exhibition
##iments
blow
arc
aside
##iser
reign
landing
rhy
##ye
device
300
poetry
damn
attached
177
ford
feelings
federation
banks
symbol
sang
##ographic
exclus
##urt
cod
finishing
alco
breaking
partnership
cous
davis
willing
serb
pink
dear
ryan
surrounded
veter
lip
impossible
rising
tiny
aged
circuit
fm
engaged
1953
camera
pear
rivers
netherlands
somehow
##heim
collected
influenced
fel
##itzer
intel
structures
##oir
##ima
plane
##ilton
weekly
consisted
elder
dismiss
##iah
##fe
funds
##onym
##lying
aired
massive
anna
##ho
leads
##bled
##ucc
hired
##itely
involve
depth
seek
withdra
##engers
##bles
##vant
causes
legislative
communications
##standing
ceremony
churches
successfully
##umin
establishment
##mans
##sa
weren
bah
whit
lewis
##erves
noise
l.
beauty
saturday
mol
stor
employees
tum
branc
converted
electronic
painted
educated
hart
attorney
##umber
rick
changing
honest
explos
appropri
1918
fool
##what
ross
##ompl
boss
shooting
giant
inhabit
75
illeg
mail
seventh
profession
41
discip
##rible
soccer
##ti
##mo
stairs
surg
conqu
##li
tied
therap
functions
48
fixed
recognition
tired
sweden
engineer
presidential
facing
somewhat
pir
##stream
emergency
typical
##hetic
49
nik
salt
dave
##hedral
responsibility
values
maintained
scenes
odd
seed
##otic
papers
##mm
faces
murd
protein
salv
treaty
desper
##rees
##agan
alph
lyn
##zed
joining
cape
anymore
1951
pant
inspect
mall
furn
bands
assault
czech
##ece
till
parall
forever
##oln
mam
catal
frag
refuge
accompl
nas
charlie
matthe
scheduled
dean
tea
cash
combination
producing
settle
publishing
tang
##udd
##outs
stupid
push
objects
ny
tunnel
contributed
##illery
##quo
##aine
39
##ogen
responded
##osl
hoping
neighbour
subm
bachel
##ée
##rence
crazy
luke
##pton
carefully
studios
colonial
carp
spoken
representing
rival
smooth
merc
capable
southwest
1938
pione
saved
smoke
survived
##acle
innov
regarded
provincial
expos
passes
cher
freder
sisters
##gie
conte
argued
investment
ya
injured
1936
install
patri
##pective
##d.
theor
interesting
pressed
penal
goods
dick
opinion
bos
##aga
##no
occurs
biggest
raise
##atically
##night
canal
affected
disappeared
busy
convent
##agu
views
##entially
refers
##mont
selection
confused
jumped
smart
wore
loan
locations
deploy
charged
worried
khan
enjoyed
circumst
##rad
pulling
incorporated
lyrics
##ache
##asp
roy
44
gran
grounds
institution
pod
bent
committed
##jan
##die
allah
purchase
chapel
150
marry
1920
covering
friendly
linc
##bro
offering
##rell
isol
qualified
##gi
wedding
mosc
residence
##adu
hundreds
##omot
##isms
##rows
diplom
##usal
drawing
indones
archae
##ova
gift
cabinet
plain
veget
##anta
concluded
delivered
18th
alleged
##gl
##ilst
piano
interests
tropical
proced
invasion
swit
molec
gest
##nie
crossing
bush
##oster
conce
##istol
##ika
##illing
##pan
coordin
gord
accur
rebu
cock
downtown
dele
shore
atm
universal
signs
##bell
athletic
bachelor
ethnic
touchdown
cot
expedition
##aki
metres
tai
##ran
jake
comic
session
broadcasting
cycle
fallen
flower
##icide
dynam
metropolitan
factor
##orted
hate
##acent
miller
##icit
arrival
##ng
bid
##eding
##know
bart
##attered
imagine
resem
lan
1937
melbourne
hip
4th
brid
improved
47
clay
meanwhile
substant
##fast
hits
fault
##ifer
telep
cathedral
##akh
crisis
##m.
soldier
##atch
promote
1919
tort
disappoint
medium
pour
##ishes
##kh
users
costs
lean
##oli
myth
lincoln
whilst
cu
tongue
waste
programming
synt
lunch
acid
option
decide
dod
gear
delay
##ucks
##pool
frown
##bu
quietly
margar
stores
##ouri
beer
woods
worst
tries
##uits
##ni
normally
assess
##ishment
ancest
mirror
turkey
kilomet
moscow
pip
acknow
##pson
cambridge
kam
innoc
##agues
suffering
ry
personnel
paintings
rober
wins
##rog
ze
##ras
introduction
##,5
jess
equival
dates
registered
hunter
##10
artillery
sounded
ears
courts
phen
obvious
separated
benefit
##ito
vietnam
##zo
gently
resigned
passage
400
coat
secure
journalist
obviously
engines
nich
stating
installed
renew
fran
##ologies
##gas
patient
##abil
##inger
43
jord
hunting
1917
pup
##olished
reserv
realize
wrestling
dreams
##ails
##uous
##using
reduce
rig
deleg
depos
##mouth
narr
##unately
wounded
pig
sees
driven
##ager
operate
dir
##ares
flew
assistance
underground
##illed
1914
lod
agriculture
earn
1930
transportation
danger
patrick
##idi
intent
tab
sax
ky
##ivals
craw
licens
determine
enh
desert
composer
ensure
extension
fifteen
neu
expert
superior
rescue
hou
arranged
##iders
transition
ruled
shrugged
capture
pregn
52
##eland
matters
inaug
torn
amongst
prest
##uther
talked
chin
v.
landed
##lines
locked
##apore
publisher
nurs
graph
barn
compound
balance
file
satisf
candidates
upd
false
solution
dal
techniques
eating
pitt
55
afterwards
##inton
##rs
nfl
##itated
applications
gathered
manchester
rolling
##omer
islamic
1935
decade
fifty
rocks
accused
entering
##osh
bot
burning
##napped
confeder
turkish
gym
loyal
revol
portra
meat
accompanied
treated
dioc
protected
alan
admiral
satell
tie
rar
##dam
enl
lawyer
voted
dynasty
walter
aqu
ug
creative
consecutive
sections
merged
jobs
branches
##aska
visible
##utation
describes
divor
unfort
bind
##olas
laur
kansas
##hs
billy
distinguished
cm
regularly
mes
tact
nov
guil
belt
childhood
grandfather
charges
sugar
singapore
strate
arena
wrapped
##orters
courses
inhabitants
norwe
1900
sie
##iley
interpret
g.
cards
stress
kevin
64
eleven
minnes
dvd
##alo
shouted
slam
##ucing
sail
carbon
paused
strategy
##ects
lob
sri
historian
degrees
##ilation
stuck
damaged
portugues
annivers
##con
consisting
##pass
dj
norway
tennis
atmosp
##wick
horiz
1933
insurance
businesses
chronic
##bra
intellect
inqu
concrete
ric
minnesota
gib
occasionally
soil
panel
##mers
discovery
passion
heading
prayer
replace
continuing
##bal
##ommod
51
persons
guid
locomot
1929
##caa
useful
touched
##eller
flesh
compete
##icians
documents
##iva
trump
colorado
tip
fisher
alg
lux
mud
accommod
favorite
playoff
dies
howard
studying
diamond
survive
yan
cul
franch
mining
caval
passengers
adjacent
46
amate
birthday
##rant
kissed
directors
fishing
ark
organisation
t.
anniversary
twin
dol
serge
jaw
severe
portuguese
##aud
additionally
dating
drugs
winds
philippines
tennes
##una
jimmy
golf
duties
daughters
pleasure
##ois
challeng
experiences
samuel
##imate
evalu
cycl
adap
missouri
repair
senator
##iang
factors
##encing
##ocol
##esc
substit
norwegian
##icing
roc
knees
infr
absor
worship
forty
##ruption
promised
##ocated
rud
returns
##writer
threatened
##lan
deck
##owa
judg
1934
feels
wisc
##uting
strip
user
tennessee
junction
ariz
dna
breat
purposes
praised
knife
scholar
parent
rejected
diet
##etime
notably
##onsin
distributed
string
closing
##po
##regon
testing
cheek
holl
roughly
##box
burst
ted
defensive
authors
##ounced
malays
displ
prompt
relative
adding
rush
participate
congreg
begun
context
photograph
parallel
unusual
morgan
wisconsin
##ashing
warning
mi
param
##real
palm
nobody
niger
sole
oregon
tack
1928
echo
linked
horror
dece
hollywood
##ucky
##ami
listening
ale
storage
hans
##rum
ncaa
monitor
creature
##ensions
burned
intention
designs
fighter
##western
rect
vast
surrender
00
dat
forming
lev
neut
faster
marie
happens
rit
vul
existed
bureau
mp
gods
assass
arizona
queensland
##wich
emerged
pas
hers
austria
circumstances
bou
construct
suspic
kelly
universities
wire
subjects
ridge
##chi
##je
hanging
monument
brun
exha
##going
visitors
associate
frust
indiana
recip
enterpr
significantly
liquid
fo
concerns
jordan
musicians
manif
victims
prove
philip
earliest
seriously
##eted
leaf
memories
##hal
advice
instance
gabri
parking
trick
leather
wol
shift
erect
starred
differences
unto
enroll
breakfast
tools
canc
##arked
rapidly
diagn
divers
coc
enth
bottle
anch
synd
nut
lith
##omy
alice
recre
riding
retail
terminal
si
measures
anthony
vert
hamilton
##load
maryland
mounted
palest
ambass
bother
smiling
##rent
nag
highlight
##.com
solar
happening
spending
butter
visiting
##30
1932
exception
##ghan
alleg
conservation
temporary
constituency
fasc
struggle
##do
raf
##olis
##ublin
requires
sequence
stages
1922
##tv
swall
scheme
stal
cousin
##eck
matthew
sleeping
pump
margaret
outer
##burn
##yard
aspects
drinking
##atherine
destr
anderson
##mal
beng
composition
swiss
represents
raw
movements
buddh
1924
clothing
prisoners
##ibl
##ogy
offensive
##bey
##sp
switzer
1930s
##zer
finn
gordon
definitely
devices
##di
immigr
barr
guilty
easier
random
inch
depending
##ania
residential
zh
bathroom
colony
destruction
gam
manage
seeking
apple
vinc
brew
1927
practices
shaking
slo
possibility
overse
##heas
##col
##iveness
##ecess
penins
israeli
movies
welcome
##emic
aunt
johnny
lanc
borough
1921
rating
switzerland
1912
ages
proud
finance
breathing
tests
membership
allen
##erted
pron
grave
vary
mode
diego
assign
copy
1931
clark
outstanding
##aks
5th
patrol
gm
##athy
supplies
reputation
tribe
##urally
amateur
ay
anx
nervous
honey
##inder
roger
cole
##ulating
translated
adults
houston
alcohol
fled
taste
##uri
##ture
andre
describe
##aring
##coming
lucky
moth
forb
##inals
thunder
suggests
equivalent
upset
chase
##odox
whereas
parliamentary
monaster
coastal
pav
vocals
chick
##igar
greece
productions
176
appreci
##ieties
jar
liv
##place
joh
appearing
agents
##hammad
##case
17th
bulgar
vib
phill
resign
laughing
##eler
armen
rhyth
nan
##pir
##zh
hunt
anywhere
actors
restored
plastic
tent
##omed
avo
hem
1925
dancing
collaboration
density
croat
casual
waves
haz
preced
hence
nur
stew
1916
crash
1915
mack
kin
accounts
depression
policies
54
suicide
##ulous
compre
meters
relie
embr
##ucked
astron
blues
zero
medie
1923
gap
index
sink
##aria
bone
wy
##roc
##lah
publications
toss
deeply
##mate
males
medieval
arrest
depict
##apers
increasingly
vessel
moves
gross
symp
corrid
##life
chat
gardens
renov
physics
##igation
audio
1910
pitch
##cha
eighth
##bow
gradually
acted
mason
exposed
premiered
alien
glow
slipped
sanct
##abad
remove
immediate
extreme
dogs
nickn
alab
1926
swimming
margin
subd
fucking
belg
juan
license
pel
throne
appointment
debate
sending
operates
involving
reven
customers
blocks
fulf
##agen
wonderful
rifle
sentence
ther
marketing
sne
abb
noble
shopping
##dd
##sex
##net
strongly
indicated
py
##ante
fate
gif
##enses
##ception
amend
dawn
squee
surgery
cable
talent
##organ
approval
gender
fern
nel
tub
commonwe
juris
##alf
counties
##onian
mississ
bund
retained
##heastern
explan
marks
##ete
kentucky
speaker
translation
rice
slid
commonwealth
afford
isa
debuted
traveled
routes
instruments
ownership
scientists
manufacturing
resolution
douglas
dying
prol
##ifications
cord
##iner
divisions
crop
##opes
walker
contributions
##uv
landscape
crystal
laboratory
afghan
alexand
##iped
careful
economics
technique
##ontin
##rons
determin
dw
ld
##uma
illegal
##ori
imprison
drift
prohib
comfortable
relationships
essential
hawai
lon
blade
scholarship
harris
shifted
romantic
recommend
musician
phr
genes
##roit
lung
rates
##issions
##leep
dollars
mini
##hone
meetings
funny
##inced
##point
##uccess
indigen
unsuccess
ceo
processes
verse
##iami
##bar
mathematics
elementary
breast
dall
appropriate
friday
##eton
credited
metro
trophy
milk
totally
considerable
battles
letting
bench
glo
##dale
submar
gulf
##theless
artistic
nevertheless
dc
##otte
masters
mate
swing
chanc
charity
emotional
insc
grim
winners
fried
##ista
corporate
markets
merely
cleared
##acked
##amental
andy
##ppy
assum
beating
females
##ão
proof
femin
frederick
shoes
miami
pc
##mates
discussion
##stairs
cliff
moder
fed
emotion
commanded
harvard
gonna
convinced
schedule
sustain
wished
pages
mars
excellent
definition
guar
bend
requirements
##utely
jail
stones
asleep
possess
wand
disord
recordings
bin
##nat
##oen
nest
personality
nom
##anner
franchise
valu
lift
benn
aar
indigenous
ss
exit
orthodox
decisions
novels
cried
um
behavi
##oped
ceiling
##uster
legislation
boats
wanting
painter
euro
##angel
coalition
##ycle
53
##rane
voices
loose
roberts
suppose
replacement
exists
16th
employment
mum
greatly
worksh
roots
moore
reun
external
defeating
raising
dublin
formally
satellite
invent
kate
1913
detroit
strict
violent
scared
distract
1911
ian
quebec
##equ
##abled
##aux
criticism
shah
absence
benefits
flows
charts
informed
popularity
denied
principles
criticized
allied
##opher
demanded
mississipp
hiding
obser
attracted
naked
##itable
peninsula
hosts
myster
cavalry
emotions
##tha
guests
export
##arn
alabama
##iture
parad
identify
##amps
blond
##11
frequency
occupation
gotten
fantasy
soundtr
danish
56
ambassador
##aro
simpl
hob
tiss
bast
exercise
kennedy
divine
meets
perce
refere
nathan
bruce
bread
equipped
moral
wre
##after
unex
##usalem
embarr
pace
photo
gosp
##40
lion
meg
consciousness
charter
wes
effectively
colors
embarrass
poem
expensive
##acht
ranking
trading
oklah
recept
stable
helic
incred
mainten
proposal
ip
components
##kee
foss
bug
lasted
##avia
socialist
jerusalem
excited
hab
##osing
gill
kl
pic
aimed
victim
tap
argument
encouraged
undert
gle
slave
dated
##ighters
##rose
adventure
suspect
##ask
##sters
lov
vessels
kur
extent
ni
domain
upgr
enforce
valid
maintenance
knocked
##issance
##eld
##mother
taiwan
considering
adapted
couples
shouldn
symph
subur
##agger
##mi
yelled
oklahoma
##agement
releg
chand
filed
electrical
sigh
unfortunately
permission
sweat
pretend
##ivated
austin
acknowled
beast
forests
creatures
antonio
forgotten
michel
devil
worn
optim
networks
##sky
##erto
backed
lawrence
aggress
debt
175
pride
disney
manusc
kaz
description
chile
2,
57
mississippi
apply
##elli
manuscript
scor
edin
hardly
toky
##fc
adopt
enthus
##erb
##nn
enemies
classified
rounds
66
##vent
##icut
##rix
##astruct
ottoman
diocese
##pers
tool
carter
hungarian
shir
mood
christians
1908
commissioner
scand
atlanta
counsel
hood
discussed
##orph
##ardo
clan
simult
##mic
##ía
collaps
intr
math
##nda
##agg
iowa
hurrican
##icking
injuries
simultane
##face
wels
fib
escaped
argentina
rarely
amazing
gates
surviving
similarly
button
fict
##iac
newspapers
##iable
##itate
boundary
revolutionary
butt
##icial
friendship
lem
##oh
successor
stir
infrastruct
lakes
electoral
##iciency
##stit
##rimin
triple
##state
industries
confidence
abuse
rebell
remark
intense
parks
58
cigar
abc
phenom
danc
opportunities
dirt
initiative
powered
puerto
clinical
##borough
cutting
minimum
celebrated
climbed
##aving
influential
##kshire
##aware
##chell
switch
anticip
revival
aviation
cruc
surely
##gh
bare
belonged
comics
replacing
bour
coverage
autonom
russell
apparent
bless
hook
##osa
belgium
basin
knee
conclusion
checked
strategic
gary
commented
##oyd
edinburgh
declined
tokyo
eggs
farmers
##pur
jet
recall
losses
statue
##areness
##ovak
poison
rushed
##rin
guitarist
struggled
illness
##itals
softly
vik
yor
gur
montreal
louisiana
apolog
seattle
sharing
6th
ourselves
excess
stronger
overw
##mat
donald
##ikh
denmark
centers
blo
edited
ladies
keys
##oto
lag
dil
##estyle
lank
chee
brazilian
designer
missions
awareness
95
merchant
holiday
##vens
dart
ignored
##eley
recognize
##vere
amy
##ür
battery
##imp
cinema
signing
dozen
pitts
##iti
hamp
welsh
kay
hyper
persu
cyl
rag
toy
prix
ukraine
marshall
va
constitutional
##21
hut
involvement
tech
provision
helicop
nazi
bones
##ickets
springs
practical
broadway
grinned
occasions
departure
modified
ideal
searching
##sed
suppress
karl
monster
tamil
##anged
answers
thinks
##stan
forehead
scout
tribes
nu
reconstr
bears
##inations
governments
bullet
helen
inhib
detective
12th
heir
printed
##aws
proport
principle
##aham
yield
uncer
hull
commem
reprod
##inted
stem
harbor
ms
cel
arn
grip
peters
##veland
meal
recovered
mechanical
pointing
girlfriend
tract
limits
osc
recommended
sult
1905
##inction
surviv
kicked
7th
bub
stun
surve
peaked
surge
extract
arrive
robin
lots
##omfort
terrible
radical
maur
purple
christopher
concentration
bra
electricity
advertising
cargo
pushing
##ibilities
##sea
cream
err
stim
placing
##low
competing
##verty
timber
##udi
##uch
staying
maid
processing
snapped
restoration
yours
abbey
executed
completion
sheep
integrated
ordinary
##rom
decline
root
beth
wondering
fellows
possession
heb
overwhel
##thy
sheriff
99
spark
tempor
campbell
infrastructure
connecticut
announce
honorary
collections
paying
cited
admit
jerem
##rot
distant
reward
pine
spaces
atmosphere
confusion
##ront
##enh
cotton
resid
##asha
screamed
##inian
absolutely
render
poverty
ern
danny
competitions
barry
guarant
latest
1906
soundtrack
nelson
prepare
legislature
experimental
##oys
##ello
alfred
filmed
detailed
liverpool
funeral
wides
manip
hungary
##abilities
jonathan
guardian
graduating
pharm
13th
##iece
austrian
angels
sacrif
blast
youngest
##rik
wisdom
nash
gut
nurse
59
deaths
preserved
coinc
##zing
corp
emma
monastery
##oa
len
seb
monarch
1907
load
summit
interrupted
morris
profile
angle
muslims
franklin
##estone
eyeb
##rations
sung
perspective
oliver
hub
marcus
adams
perp
##wall
rachel
cleveland
files
survival
##pm
reluct
qualifying
cott
mistake
##aza
nights
##erce
sponsored
territories
bris
sacred
tig
whenever
ninth
pole
susan
##25
dominated
unw
unp
gn
lifetime
instrumental
stol
reply
bloody
gabriel
shares
inspir
consol
vienna
bigger
thrown
dirty
##gow
machines
waist
goth
norman
behalf
uncertain
suspended
slaves
##issa
literally
##car
genetic
##orship
instant
godd
k.
saints
mystery
fract
wag
remainder
participation
##lete
posted
1909
##inter
revel
jurisd
helps
dual
denn
hi
hast
partly
fee
##apping
concerning
dallas
trend
fabric
options
##annah
##rome
vincent
##80
vampire
sara
dock
##ige
perfectly
annually
yug
##timore
sessions
ja
bri
exceed
mines
thompson
producers
explo
progressive
affair
##cop
##lock
hud
corridor
##uz
##master
witch
##rets
fright
baltimore
stewart
1,000
chor
15th
patterns
tob
writes
segment
borders
supporters
ports
vene
longest
##cs
apost
85
architectural
researchers
120
warriors
1920s
preferred
poems
reception
conj
vit
##asm
shake
engineers
penalty
indicate
runner
##és
colomb
gw
##mble
chel
bars
##yler
trig
claiming
mak
beet
frequent
acceler
singh
hello
##aman
remote
elsewhere
##repr
hearts
revenue
phoen
shadows
portugal
partially
displayed
figured
160
waved
##hua
functional
shower
ruth
videos
spar
glas
conven
72
immig
viewed
sufficient
controversy
attending
portrayed
thorough
bak
emily
reaches
output
substantial
commerce
ltd
everybody
##emed
indonesia
pleased
crying
mong
weird
operational
funded
furthermore
participants
1904
250
##pled
comprehens
habitat
gast
agencies
thereafter
reveal
bobby
##inks
graham
harder
encl
reporter
secured
brings
controversial
sean
transit
panic
liz
tier
##pread
predict
intersection
drunk
##acles
brill
##udes
styles
dealing
eliminated
periods
archb
johann
##ographical
everywhere
serial
representation
kan
stair
widespread
valuable
##hew
biological
commune
allies
ranks
specim
badly
genre
61
charlotte
63
##lev
gospel
##alia
uh
regime
glory
manh
##60
indians
##break
##part
wise
believes
thy
benj
streng
dh
managing
abst
ruling
1902
##isition
stanley
##otype
citizen
curt
resol
##ranean
killer
62
stops
14th
arriving
adjust
jacket
songwriter
confront
##gradu
##izz
pond
populations
puzz
##teenth
bic
crimes
##oard
lud
thorn
ceased
ticket
carn
delivery
animated
copper
malaysia
sod
remov
10th
annoy
attempting
patron
##mingham
##ladesh
cree
channels
##apolis
##ills
bangladesh
til
rio
nearest
##iev
defending
descent
##osaur
civilian
##emen
clut
hindu
trials
prophet
insisted
classification
athletics
ng
manor
abroad
confer
cattle
##utor
wright
attitude
chemistry
fi
jury
vig
competitive
nomination
##lessly
fol
condem
lowered
##fire
d.c.
##oust
##rified
carib
constantly
dismissed
layer
medals
characteristics
glor
innocent
collective
couch
throwing
guine
ware
##eping
voting
overs
tale
venture
##ologists
generated
eve
transmission
lac
##orous
pse
##tes
spear
judges
##ielder
shakes
pittsburgh
viewers
ecc
1903
skull
cooperation
lists
1901
suitable
##igible
contribution
##oning
##enz
victorian
compens
vin
outd
orb
pursue
ukrainian
##ando
eagle
fairly
sympt
instantly
glance
grandmother
humanity
brooklyn
baker
##hers
subsidi
rust
tommy
component
parker
forum
tat
murray
##uli
alright
prefect
deliber
##umped
bacter
##ctic
birmingham
##ribed
rated
assets
spotted
leban
delight
democracy
##atched
##otes
themes
requested
bog
og
##iop
flex
##sch
##iller
germans
hend
bru
commemor
wealthy
abra
##ów
kon
supports
##osph
adaptation
donated
##rine
josh
oxy
dak
traveling
deeper
triang
explanation
muhammad
67
mills
##attan
drivers
facil
interpre
nord
foster
robinson
aaron
steady
fundamental
traditionally
beck
stretched
##bur
concerts
swift
ank
caf
peoples
dramatic
technologies
nad
##apse
egyptian
vas
links
listened
reass
attributed
cheeks
##ector
##oded
##yon
isolated
##kov
unn
neutral
##12
ri
toler
doctors
personally
##ensively
inches
##terior
pseud
shocked
yester
historically
rocky
voy
photos
##unction
frowned
orle
retrie
mechanism
colored
hallway
##ifies
##wing
yugosl
therapy
switched
resort
erected
baptist
reminded
##ugu
plenty
pierre
feather
##onscious
ski
duo
gathering
hebrew
stare
10,000
angl
recalled
finland
unexpected
stern
readers
ferry
siege
colleges
wiz
sheet
ling
##hai
170
prospect
fictional
##keeper
##ashes
yesterday
monday
8th
lucy
##olo
ww
achievement
diameter
harbour
cs
##unct
compilation
glac
77
volunteer
abilities
archbishop
##aa
hated
suspected
decides
##fare
beings
jerry
griff
loop
recovery
venue
stu
regardless
##boy
lex
ced
spo
regulations
##lie
disaster
##wer
opponent
cum
forcing
sultan
warren
##bean
nicholas
##avery
cbs
predomin
sergeant
demonstrated
alter
propag
pants
touring
11th
pregnant
pete
licensed
orn
benjamin
healthy
##itarian
warrior
kos
murdered
tib
affiliated
bernard
74
pm
##anian
reveals
jung
venez
beam
pla
##verse
##rection
##etta
relation
nit
artific
josé
thrust
alpha
gymn
loves
lithuan
diver
orleans
portrait
administer
vulner
larry
automatic
tak
nba
tables
##zes
walks
loving
barrel
shops
consc
##iki
properly
choir
turb
carlos
luther
overseas
##abet
mediter
laughter
continental
camps
n.
ivan
client
wool
76
mitchell
wash
tape
eug
##esty
aj
synthes
##ario
transc
nbc
texts
steep
organised
rent
earthqu
ov
pent
publicly
credits
gau
68
arrangement
punishment
quad
sized
praise
gamb
hurricane
catherine
shed
simultaneously
gig
impressed
platforms
##rett
##phy
##oga
##ellor
reportedly
##lined
exclud
##zi
connections
elevation
##ulum
difficulty
jen
explains
portland
telephone
gul
aboard
##ayan
suffer
sculpture
continuous
surprising
fitz
##gb
elite
##ationally
monthly
produces
psychology
dug
fighters
phoenix
boyfriend
##irm
behaviour
##uration
provinces
##hana
ratio
wildlife
predecess
atom
clouds
chi
ingr
judgment
releases
classroom
happiness
yu
twisted
racial
reflected
##graduate
trace
##iology
mediterranean
73
migr
talks
peer
servant
categories
sul
##ener
characterized
absolute
demolished
orient
assisted
boot
evans
earning
##alous
fortune
blog
liberty
mercy
69
volumes
##bie
nev
1898
climb
withdrew
shots
##othy
richmond
##ailand
fid
companion
##oni
##aping
bald
connecting
ain
174
buffalo
lisa
uss
minority
syl
asc
wider
sinc
carrier
goddess
opponents
arabic
mild
thailand
wayne
fog
##agh
scientist
manifest
virtual
utah
##etr
##ouver
abraham
increases
sevent
vanc
marath
doorway
boots
prisoner
recognised
drums
identical
courage
tox
confident
tough
##acu
enzy
wells
demands
aggreg
involves
##ivation
##aments
destination
##ounds
strand
muscle
ultimate
hungry
tomb
minds
1000
prices
eb
volunteers
rode
percentage
tested
hitting
##ski
sket
datab
discrimin
bree
sank
mold
travelled
tube
quarters
ease
linear
worker
164
bert
spider
todd
departed
naturally
impression
##onymous
pleasant
betray
traditions
photography
dependent
coron
##overs
##rest
hed
##essa
tenure
laura
intellectual
statistics
steven
9th
pyr
innings
reporting
##agre
##riers
afghanistan
spirits
oxygen
##chy
##aze
dict
assume
##orf
lowest
##mus
##ín
excav
nun
photographs
toured
##vet
congregation
arkansas
##ourse
ongoing
kinds
##bach
contested
vital
lav
magazines
revenge
glasgow
devoted
objective
sandy
##fit
sund
gust
error
preparation
operator
folded
seal
instinct
establishing
symphony
ethan
sentenced
arist
thou
grows
enforcement
guild
premiere
craig
garage
oblig
overlo
belongs
fitted
challenges
instructions
##,500
##semble
directions
##berry
kyle
##istical
corruption
tension
##iri
##sis
reduction
tourism
sixteen
mul
thirteen
##19
rico
##ints
##agers
pub
1890
##most
eyed
farming
barbara
referring
locally
sailed
julia
mant
settlers
neil
78
twit
shelter
consumer
##adi
##mel
immigrants
mug
##then
vancouver
dominant
##gate
##nia
regul
##ridge
spots
tender
config
messages
##tz
##kar
significance
terry
ster
firing
warned
##eps
##brid
enorm
sut
computers
certific
phrase
##sm
##rah
controls
blake
inspiration
diverse
autumn
infin
comments
stall
flav
tanks
rebellion
gem
ig
##15
entrepr
##oker
##acon
caps
excit
warner
##fish
sample
##itary
eddie
ties
##din
marvel
96
voiv
1899
##achment
lig
venezuel
##bling
rebuilt
chal
guer
trinity
intermedi
##roid
somebody
lingu
interpretation
88
ral
nowhere
nhl
boundaries
une
bil
perf
keeps
initiated
enterprise
snake
dy
completing
genu
approaching
exposure
muscles
joan
persian
conventional
##ivan
slee
decorated
stolen
##ortion
entreprene
closest
regret
belgian
saving
leaning
##away
harrison
stopping
dre
blame
submarine
kirk
welf
dish
galax
subt
600
deployed
filming
manhattan
situations
dischar
dining
romania
##22
relevant
slip
cort
##sy
measured
voters
athletes
##uces
borrow
##vereign
punk
sovereign
mead
underw
relocated
##usk
##view
drummer
##eston
collapsed
woke
lis
geomet
sull
surn
##hard
##anes
bearing
##ennial
railways
scattered
lover
harsh
delhi
clo
fist
terminus
bry
##omon
belonging
mask
yorkshire
excuse
leo
furniture
##iqu
##elia
eldest
relieved
essentially
screw
bold
##endar
evolved
execution
housed
evangel
bristol
implemented
reservoir
##asa
origins
suburb
##fs
##lass
targets
celebration
##donald
isab
infer
ranging
substitute
fifa
milan
##ping
flee
tenth
stretch
tyler
christianity
declar
twent
##mund
elabor
tightly
viv
##gun
pearl
exclusively
lions
##ashi
canon
armor
businessman
generations
traded
organic
##atus
creator
comed
##riptions
hack
frances
pruss
##fers
hampshire
madison
evacu
bore
stiff
bitter
exclusive
kum
solutions
hammer
buzz
lucas
1896
pend
cp
sits
1895
expecting
shang
beaten
##urers
amendment
encounter
knights
fortress
diseases
turner
stab
drafted
##hill
##eno
armour
sic
obsc
##imb
millions
dispute
fet
hopes
package
##rov
describing
claire
scrap
reh
comparison
rhythm
##ijing
beliefs
stake
98
stroke
opens
egg
caribbean
sensitive
##okes
screaming
glen
##illo
mend
symptoms
uc
coins
equally
focuses
lined
97
uncomfort
taxes
bridges
##gal
certified
rope
desperate
prophe
brut
inaugural
chess
##vised
resumed
##xual
villa
##rific
faint
collapse
nova
romanian
lightning
jama
lil
argue
##enched
clinton
##ivia
finnish
ceremon
mansion
indicating
##eries
##soft
blur
wang
subc
rational
##pher
welfare
gigg
maps
visits
##oz
organis
consolid
telec
cheer
##ettes
resource
adela
topics
clients
syria
ministers
##encer
flour
lessons
addressed
stere
interch
reader
improvement
##cul
##18
revers
farmer
1897
##hum
payment
samples
arrow
fourteen
temperatures
realised
chuckled
abund
promoting
preparing
artificial
giants
awk
##ieth
negotiations
vertical
flames
beijing
cogn
attacking
##rac
##16
mainstream
voivodes
algor
anchor
struggling
retreat
glasses
procedure
md
ana
##anted
restricted
tourist
##avan
##antine
keith
stranger
julian
intercept
##uda
conversion
framework
21st
eager
##aj
photographer
##unted
rangers
respective
kath
submitted
hawaii
consequences
berk
virus
84
prosper
incumb
disband
##ulu
physically
tumor
aber
voivodeship
porch
##folk
divorce
##fly
examination
coaching
spun
tram
bite
dot
algorith
festivals
difficulties
internationally
##erg
madrid
unt
tribute
awkward
trapped
cardinal
##ailed
pand
grate
disg
regist
awa
plates
lighting
breaks
trap
pont
87
soap
confirm
outdoor
excitement
explosion
##neath
flights
indoor
rally
privile
protests
rus
168
assessment
servants
unsuccessful
ramp
likes
ate
##ipper
##oly
##ovo
criter
sporting
interviews
costa
sacrifice
##17
vlad
comprehensive
165
globe
subsidiary
tons
kw
spa
ibn
implementation
overt
##bane
pioneer
##asi
##rsqu
failing
testament
questioned
slept
##icity
experiments
speakers
underneath
resur
zo
maine
##efa
mere
mutual
approaches
fier
lodge
1889
rage
emphasis
##aughter
##eli
customer
##ocation
iranian
impressive
midnight
rings
tissue
##bound
curious
radi
endemic
1893
##alt
remix
signals
jenny
locality
shorter
logic
immigration
##oons
serbian
##lington
rede
monte
hollow
##isi
##13
frozen
pupils
drown
##umbling
blessed
fellowship
jurisdiction
radar
yout
swept
quit
wrist
widow
logan
burial
archaeological
herald
originated
isaac
##aceae
heal
##rat
dropping
healing
presc
inherited
quart
permitted
narrative
173
reviewed
firmly
kap
martial
uefa
banned
volley
proteins
auto
##reats
##ether
motors
focusing
petition
harmon
tribut
##dp
enters
acres
ruler
imagined
satisfied
169
presents
1892
rhod
advisory
rook
convince
chancellor
carries
##isha
guilt
souls
manufactured
cuts
gmina
toll
regulation
##icia
##borne
twist
towers
##via
compass
hudson
##vo
defended
grades
theories
##14
1940s
accum
guidance
167
priests
interaction
800
rip
whist
pastor
bills
au
instruction
awake
accessible
kg
andr
believing
##dles
escort
##23
93
##iors
acquisition
rocket
1885
collins
influences
wu
qur
references
##eling
##ju
##eled
basement
historians
sof
raid
pounds
picking
##ethe
1894
sebast
tours
delta
indicates
nigeria
##eters
##enberg
grandson
pile
binding
trim
rubbed
realm
seeds
polar
drip
cameron
##amped
##eta
##arus
patent
peas
missile
observation
playoffs
cancelled
activist
consistent
connor
drain
motorc
occasional
graduation
employee
engage
devast
dollar
distinction
86
derby
moll
holes
restaurants
amounts
##iry
departments
##iya
chocol
dragged
tales
boards
##24
shaw
##aven
columns
ske
download
colleagues
balls
topic
shame
wheels
merger
##fielder
cuba
shipping
specialized
abstract
jeremy
166
anat
##acc
tiger
carved
marit
biology
accurate
prel
maced
justin
qualify
krist
subsc
fluid
##iler
followers
ceram
lloyd
serbia
canton
byz
writings
sake
anthrop
trio
inject
moses
ballet
theod
romance
striking
cinc
phenomen
##bird
reorgan
presid
joke
##ensis
envelop
diplomatic
1865
facts
physician
guinea
##ppers
democrat
stead
prey
celt
bout
##aco
##aser
swung
eternal
bike
##utt
romanized
bags
1888
repeatedly
heights
discontin
sloven
kor
##nered
yang
loaded
chicken
quarterback
riders
mysterious
adelaide
illustrated
##ović
jin
enormous
travels
1891
infl
renown
mixture
##ixon
89
##oves
##olds
shaft
legit
contributing
preserve
bases
trunk
editions
intim
youtube
##oba
bio
ft
phosph
liberation
investigate
abrupt
ms.
##eff
wiped
##haw
##ciation
calendar
pairs
curtain
##pec
circular
stored
trium
hugh
1861
##ompass
conspir
householder
scores
jeans
ml
reverse
nephew
##mill
tin
heroes
zomb
execut
blend
partial
breeding
crosses
unre
alternate
prad
commitment
chrom
altar
concepts
microsoft
deer
mouse
ferr
79
outbreak
chairs
eligible
stevens
##hend
exhibited
encourage
psychological
temporarily
protestant
meth
distur
tigers
raz
breed
cooking
##ulus
manufacturer
hurry
vegas
deemed
jealous
challenged
posts
obama
honors
jamie
perceived
gott
##gam
alp
floating
##roph
1864
unity
##assy
participating
poured
spat
dorm
politicians
supplement
worlds
annex
reducing
tyr
speaks
settlements
vern
spare
encompass
hier
animation
##hand
burg
epic
torped
flowing
sier
abu
reed
jesse
boxes
satan
130
hav
transact
alaska
94
blocked
rejo
clearing
azerb
curric
helicopter
hurried
guided
pon
campaigns
convicted
efficient
##ean
thread
lamb
azerbai
resignation
parade
lamp
tempt
overcome
dread
commons
##ecution
lily
nepal
buddhist
lanka
coaches
ridic
torpedo
cruel
dors
skel
gren
##top
click
buses
##enburg
aven
celebrate
tasks
statistical
silk
##mn
chim
municipalities
1880
extensively
rushing
##nell
dere
engagement
##stad
1870
explore
goog
molecular
destro
concentrated
telegr
proceeded
yam
##olly
democrats
##jab
##ais
statements
toil
rah
interstate
incumbent
elevated
vest
bonus
mim
fence
marble
robot
##ouses
societies
3d
dum
utter
anglo
##jar
devot
##kan
phd
immun
goodby
vine
massac
supplied
releasing
warn
rd
bengal
elevator
cats
cob
163
bever
magical
##amese
##obi
pec
stuart
keen
appe
harold
lovely
1862
grid
##castle
kab
automatically
##ui
mainland
delayed
flick
circles
ard
swear
spite
##eous
consumption
eighteen
commanding
spy
radiation
experts
##eto
veteran
orbit
82
subdiv
explor
emerging
filling
coin
intensity
##ycl
floors
transformed
kle
inhab
1887
thereby
muttered
corresponding
cc
namely
advocate
##ipher
ralph
##ayer
seated
henri
climbing
cartoon
shallow
input
##inth
puts
smir
descendants
preserv
hitler
##.d.
gauge
##aha
##olition
butler
dennis
characteristic
1.5
unconscious
bankrupt
moreover
brilliant
92
silently
##dr
invis
tossed
oriented
chip
athens
maintaining
recur
gaining
relaxed
grammar
encountered
stakes
removal
locomotives
##front
##mun
examined
capit
1863
hypothes
##gue
favourite
pilots
cultures
brisbane
creates
chester
attractive
aster
customs
contents
dare
lp
bust
travelling
feud
explicit
jessica
insight
ritual
attendance
##ester
orph
pitched
precious
interchange
##lett
##ensional
dialogue
##vas
edges
raced
hispan
beetle
northwestern
distinctive
##erie
napole
bish
perry
drinks
83
##lon
spac
seth
obst
arrives
depicted
bik
amanda
alberta
sally
arsen
comprom
jefferson
psychiat
jr.
##riet
eagles
##anim
gothic
adventures
aur
axis
carriage
receives
disorder
##ingham
saudi
twins
declaration
efficiency
fraud
surname
mik
née
kilometers
##isy
extending
##nik
relatives
cage
theology
##forced
consequently
scan
dwar
tens
structural
enrolled
commod
slammed
faded
rogers
hospitals
usage
fires
##iast
##gent
thigh
washed
##beat
##rogen
##owski
##iolet
prevented
mock
1886
trigger
barcel
ranch
rebels
arrangements
packed
complicated
bats
triumph
cheap
clerk
threatening
garrison
##achi
chaos
feeding
theoret
breathe
crus
sag
##,7
##itis
magnetic
retain
##itudes
swallowed
mane
resting
##ét
belly
offs
lords
##iate
lance
lesser
compress
##incorpor
##ogan
##,3
signature
attraction
strengthen
hardware
feared
##arded
nancy
grasp
cun
thumb
horizon
forgive
airlines
murphy
sixty
fewer
fbi
revealing
separation
backing
commenced
##yers
accomplished
presentation
gifts
gav
crops
holland
enjoying
##asters
rider
##heart
##lord
succession
wow
fare
relay
interc
##dish
##izer
##olia
71
1884
dissolved
##inge
seized
leeds
##feld
grain
pistol
leagues
##idal
munich
duc
exhibit
slavery
exhaust
fake
territorial
intermediate
annie
earthquake
contracts
antar
concur
denver
1881
violin
##uki
philippine
hasn
sequel
printing
peaceful
diesel
##incorporated
grap
rounded
daw
forbid
cincinn
fount
brush
designation
alley
stub
duck
acoust
icel
improvements
colonies
survivors
barrier
planted
marx
100,000
doubles
editorial
seemingly
pian
##anche
ignore
aston
variable
maritime
##iph
##wright
threats
vulnerable
chocolate
##cill
##ampton
booth
banking
amph
ki
handling
asp
prosecut
dent
google
##oka
grove
franç
philosoph
orch
##oca
##orig
rena
wheat
pradesh
spur
##igious
oscar
database
humor
satisfact
introduce
ing
dakota
journalism
navig
owen
quantum
confederate
xi
##ahn
peru
##isp
trem
##mons
assured
refugees
##lain
vow
inspector
professionals
tuck
159
cincinnati
##pro
cec
##esco
##én
veterans
boom
##kind
filmm
karen
hond
preservation
##,4
##echn
bitch
councill
apprent
senses
judicial
swan
sak
tir
fond
legion
hein
mt
renowned
rested
uncomfortable
murm
sob
joshua
touching
manual
eaten
##unes
nevada
legacy
altitude
farms
##inum
##ours
fart
sometime
discipline
##atoes
alarm
fears
intervention
innovation
depends
punjab
##holm
carr
exile
##inda
logo
doctrine
2.5
collaborated
tremb
footage
summon
closure
barcelona
##orth
defender
##bourg
sailing
iceland
##igo
nickname
imagination
gregory
pilgr
greet
norfolk
inducted
sierra
righteous
scent
suggesting
specialist
##imir
patch
1882
marg
##opy
recipient
entity
##ascar
gasped
oz
hybrid
pipe
architects
assassin
stanford
wishes
warfare
##erness
melod
sustained
gravity
armenian
shiver
jennifer
burns
transmit
insist
mathematical
rebec
##pear
unincorporated
outcome
##ylan
contribute
ming
diversity
parked
demons
routine
luis
##obile
witnesses
appreciate
item
cosm
##,6
testim
##wig
##27
crashed
##cr
acknowledged
remo
dale
##star
dumb
vocalist
canyon
##aba
wounds
trev
##elines
##itty
moist
fairy
mg
batter
daddy
bulk
ampl
exhausted
valent
repeat
reflection
##asia
desired
freight
rim
actively
autonomous
virtually
administered
permanently
##lem
invitation
volleyball
jewel
##icon
chambers
menu
gover
imprisoned
ensemble
accred
shin
moroc
maker
strat
##iov
shim
boxing
chapters
blanket
proven
reserves
ranges
##isle
organisations
documented
##care
undergraduate
searched
##iated
announcement
militia
##gro
possessed
dome
florence
programmes
plains
rebel
edwards
shakespear
aborig
buying
##ropod
steal
cameras
brah
grateful
##acco
flame
accent
cox
metall
predecessor
absent
upstairs
newcastle
##velt
ethiop
##ère
##ahl
altered
missionary
contrary
amster
prefecture
ras
suz
revelation
embassy
boulev
pam
armies
poster
wagon
##urst
workshop
curve
secrets
stef
jumping
alumn
practiced
governing
aids
array
mosque
necessarily
##ör
herbert
extinct
##enos
wallace
casualties
tune
severely
recruited
accommodate
sullivan
whoever
centered
##osition
colombia
cheese
u.
harvey
1860
spencer
blew
certificate
chan
shade
installation
volunt
moderate
invented
episcop
idol
renewed
foods
mull
liam
locomotive
moss
##station
compiled
##walk
##osexual
substance
receiver
##ylon
petro
southeastern
camb
ldqu
enact
##oro
tournaments
potentially
cork
transformation
amsterdam
aims
##child
relegated
##tra
disappointed
laz
##oping
##,8
intelligent
variation
journalists
facebook
infect
##rating
maz
assignment
civic
blonde
##rage
variant
temples
cottage
##world
treasure
identification
pedro
neighboring
bibl
##bul
paraly
##eb
cleaning
rubber
natal
linda
heath
morph
witnessed
roose
rebecca
invisible
keyboard
gorge
goodbye
laser
##gg
insult
warmth
oral
honored
venice
##haus
ruins
##oko
1883
advisor
jag
archives
kun
slide
yale
coached
findings
1871
pall
trips
rape
##inery
smoking
newton
alger
##raw
infection
colin
##rington
chen
galaxy
piss
trent
##pless
rabbi
revised
compact
syrian
lib
connects
rey
corners
1876
citing
marqu
##pat
dragons
cyr
reforms
nebr
ion
110
variations
protecting
chains
brass
targeted
raymond
abandon
salvation
pi
fung
accus
2000s
##ér
noting
##overed
shy
harvest
cylinder
fatal
spectrum
particles
honours
presidency
hips
kills
1878
chorus
fever
descended
meter
pitcher
cauc
##owing
##ommun
convert
nursing
intens
painful
dimensional
portions
eleph
##gom
entrepreneur
filip
suspension
aggressive
garc
renaissance
##boards
choices
remn
##rist
dian
advised
harmony
prostit
ost
sz
##reen
bunch
sanctuary
anybody
loos
cannon
matrix
##itic
restore
absorbed
grants
botan
authen
midfielder
##26
cros
founders
qualification
watson
layers
geoff
enhance
squeezed
brow
manuel
amid
enabled
2,000
compat
integration
smiles
seminary
##ilda
nebraska
presum
lobby
gy
petersburg
checking
mineral
##amer
athlete
crypt
argentine
assembled
landmark
##irts
##pit
##uctive
##ovakia
displays
##apped
arnold
pursuit
##inging
exhibitions
assists
maggie
##unate
notion
minimal
bombing
airline
##iko
ji
##eda
expanding
procedures
dow
155
pirates
anime
congressional
##agonist
evident
dimin
recruit
disbanded
horizont
##uter
boulevard
kenya
spokes
torture
affiliate
immort
developments
bened
##anni
wednes
thai
hod
lifestyle
embrace
gol
inev
dealt
interface
loudly
dame
deals
migration
merit
rend
handful
roosevelt
157
outs
depot
applic
tibet
##ople
sophie
81
##sl
streams
aux
frost
discrimination
##ilding
relating
lebanon
##rous
##ader
solve
liga
consequence
plaza
loun
monk
monitoring
punch
huh
bav
safely
comprises
tobacco
manufacturers
thee
1867
tourists
##w.
nico
semif
##ilia
handsome
sans
##intend
##yright
removing
cater
proxim
feast
stationed
exterior
mrs
##lining
casting
associations
lok
retre
devon
zach
##ffield
deport
straw
tribal
ghana
graphics
breeze
reconstruction
copyright
mamm
##agar
##iji
weakness
coven
warsaw
mature
julie
solomon
gilbert
gonz
thurs
dialect
##nan
backwards
dynamic
uncon
practically
apoll
upcoming
hughes
analog
ignor
pronounced
shanghai
theatrical
avoided
mour
verses
##helm
complement
volt
singers
forgot
nob
makeup
##rez
1872
ernest
malay
shak
colours
##i.
improving
##ppe
wend
unlik
reinforce
wellington
ratings
lightly
1875
priority
##pert
##enson
##28
portal
caroline
wicked
counterpart
iraqi
##var
ottawa
email
ellen
##erable
runners
contempl
dancer
dwell
handled
retiring
berkeley
croatian
drake
extraord
chelsea
estates
bits
jill
bm
jab
presby
pd
aub
mast
hir
sibl
arbit
symbols
pressing
vault
extends
martha
rams
louise
sue
dried
arguing
ti
##lar
##atar
somers
##etheless
correl
1868
wednesday
owns
amazon
nonetheless
1879
illumin
sheets
thursday
montana
##aire
gra
stability
##minster
weigh
siblings
predominantly
reck
provisions
rut
125
##ulsion
cigarette
prelimin
##atin
##stown
fastest
marines
civilians
boun
##hin
argues
counted
graves
realizing
bulgarian
cruz
seas
beds
chad
gly
enable
halfway
catching
consent
##omi
culmin
alert
##isons
nationalist
phenomenon
darwin
amber
horrible
rivals
reasonable
advertis
ply
essence
artif
collecting
membr
authored
consort
memoir
define
wander
instructed
nashville
lesson
neo
voiced
requiring
remar
sap
unem
riv
dign
ober
halt
##quet
##oric
investors
excellence
unlikely
paras
collegi
manages
curse
##active
elderly
insects
consideration
align
independently
permit
tatt
topped
pause
##olph
##natural
collar
tol
sham
recreation
voyage
overwhelming
equation
1866
updated
kash
##bin
ordained
eventual
beta
pulse
commentary
lectures
158
##acular
gand
criteria
gir
kre
faithful
sebastian
stepping
numbered
##uman
airfield
leonard
manga
centres
bishops
curriculum
extraordinary
delaware
##person
##asper
azerbaijan
##icious
##rode
hint
autobi
1874
prestigious
140
reserved
chances
##inked
1873
byzantine
##ystem
graphic
rookie
olive
remarkable
phillips
consens
abolished
tamp
protocol
##29
romans
determination
croatia
misc
##isan
pursued
bee
overhead
endang
bam
1800
derek
hispanic
shakespeare
drives
metab
auction
91
##cos
hunger
sustainable
slav
##annon
adequ
##found
##du
denomin
infinite
twentieth
doz
bark
krish
requirement
lawn
ace
mumb
##boat
terrain
basil
fork
restrictions
##atern
nem
decent
##far
dimension
secular
frustration
umb
syndrome
diction
explaining
kol
varied
server
stein
rol
dylan
mtv
terrorist
##aca
anxiety
palmer
1877
tut
ally
roster
activated
victories
solely
##eon
adrian
reads
##ums
boarding
##org
modest
##bors
wizard
melody
kissing
fossil
flashed
tooth
##cester
bonds
##iciently
libert
jacques
reactions
##anga
consec
sheffield
quoted
eyebrows
##power
consultant
convinc
##enter
exploration
##hd
inc.
auck
bypass
5,000
metre
accomplish
brave
##ido
suite
bride
inherit
panels
cyn
chore
acceptance
cere
wolves
silly
alge
exh
essay
hd
##idad
epit
artifact
tug
doctorate
appeals
ches
mete
prompted
otto
median
##holders
privately
platinum
styl
pled
spreading
emig
paradise
disgu
persist
patriarch
cared
unemploy
sou
conflicts
blu
##cot
##umble
gel
northeastern
troop
betty
sony
##inking
##illes
##alam
##sing
disbel
citizenship
streak
##eteenth
auckland
artwork
##bus
##caster
ascend
ore
violet
chiefs
ammun
1848
roche
literacy
lenn
scope
##roe
disgust
exclaimed
clergy
p.m.
proportion
##aho
##oding
cf
celtic
observations
##,9
blinked
nationwide
herb
registration
eleg
symmet
broadcasts
damp
ai
palestine
nineteenth
lend
neglect
mann
##kers
moz
laure
dubbed
imposed
trucks
everyday
mercury
##sole
##tor
strikes
bulgaria
audiences
allegedly
##gus
collegiate
electronics
drops
boost
unions
claud
segments
tues
##ogs
sensation
conductor
##itious
##su
dense
bach
lungs
acoustic
preliminary
riley
hannah
##ateral
arguments
aest
conquest
journ
irreg
tuesday
libraries
##wart
companions
cb
##gomery
ego
##piece
acquire
##sson
montgomery
ammunition
marathon
bea
o.
##leys
vid
##cht
irregular
legendary
discovers
marched
clinic
dull
taxi
flooding
venezuela
banner
jak
1869
footst
perception
laying
##fam
methodist
##rition
rhodes
bennett
mighty
spine
vietn
lonely
scandal
slowed
biography
##nut
##oda
confess
ordin
antib
touchdowns
liu
##dal
700
freely
vietnamese
156
alumin
divorced
##mare
distress
spart
ting
sunlight
transported
trailer
underwent
suburbs
hamburg
subtle
discl
perc
##ifier
##avier
multipl
brushed
lighter
##anne
millenn
authorized
leop
duncan
prototype
crafts
associates
lecture
divide
desperately
##eg
veloc
spray
nerve
bump
##isk
welcom
hamlet
##avel
trusted
stack
episcopal
##hall
venues
indo
reformed
unanim
luxury
convoy
hydrogen
homet
journals
suburban
redes
lever
generate
##ativity
duration
southwestern
versus
transpar
respected
controlling
thesis
enzyme
perpet
currency
discontinued
hik
lecturer
shrub
##aras
sphere
decrease
1850
enhanced
##erts
##colm
celebrity
maurice
ignoring
chlor
enlisted
##esis
strings
deaf
hugged
sprint
reop
equality
rays
lasting
##iao
hometown
palestinian
##word
heels
destiny
conducting
rectang
operators
##ovich
##elyn
precip
greeted
glared
privacy
abruptly
poorly
maintains
likewise
affection
fertil
burden
contrad
referend
hotels
chill
##atta
harper
genuine
##add
reel
##occ
deny
iz
supervis
grammy
pist
gerald
malcolm
compensation
dash
ups
153
specimens
curios
nac
##bank
##azed
frontier
##riages
spinning
##esa
helm
dozens
##ön
pee
worthy
##bery
inhabited
ugly
conferences
bombs
mcg
kem
isle
##zhou
strategies
##aic
varying
sins
anglican
theological
rex
grande
yugoslavia
tickets
vil
##rates
navigation
amal
carpet
communicate
digit
hatch
pyram
pulls
circulation
##ocy
destroying
superintend
heavyweight
##atra
cluster
incredible
elaborate
drawings
basically
raven
##ships
arose
wilderness
rises
vermont
##stration
bailey
crucial
dump
154
urged
sway
bored
perth
beard
warehouse
slope
##archy
openly
prague
shepher
##ictions
enlar
offense
biblical
ambul
console
##andy
playstation
vend
stained
caut
guerr
scales
oblast
jungle
pedest
wilhelm
neighbouring
rack
refuse
cancel
##ahan
breasts
walt
bury
##eenth
lifting
angela
accidentally
chant
snap
kurt
arabia
instructor
outl
kas
warrant
cake
counts
disagre
consumed
hesitated
interactions
piz
neuro
wreck
kerala
lid
tide
evaluation
indonesian
disl
considerably
messenger
vat
brands
distinguish
são
michelle
predicted
obey
lawyers
inscription
grat
stam
eccles
##avian
miguel
dip
promises
hipp
dys
zoo
bj
mick
verb
summ
sv
administrator
##eo
publishers
##,0
occurring
massacre
monop
##ouch
monsters
clarke
theoretical
dimensions
swords
fights
activists
degr
lust
induced
sliding
101
demonstrate
sack
##rim
compositions
shoved
plum
promising
ronald
penny
aboriginal
inland
columbus
hank
consensus
baronet
reyn
tactics
sip
brows
ph.d.
##ellation
interven
fountain
intact
cherry
gesture
maneu
width
shuttle
overl
heter
codes
##ymph
cruise
nr
electro
lawsuit
tactical
##itative
tornado
sask
porter
noah
discussions
convey
intend
mck
verd
##oria
mama
archer
footsteps
conspiracy
secretly
fus
eh
courty
committees
flank
vegetation
responsibilities
aerial
sudan
indies
belle
stabil
concentrate
nasa
phon
bleeding
afl
##vae
cement
interactive
mechanisms
continent
upright
homeless
##ogical
##arians
interpreted
troy
beloved
##b.
##aters
panama
riot
avoiding
allegations
##aku
enlight
oval
nomine
lump
brack
##agi
ink
dos
capabilities
manila
lease
fruits
paths
##fol
kra
condemned
publish
##itus
mv
##math
proclaimed
burnt
nc
loyalty
inex
sounding
decree
pupp
seventeen
##oux
berg
vampires
hopefully
##aukee
adoption
org
cataly
ingred
winn
##backs
##hole
penet
compassion
powder
deadly
##él
headquartered
mentions
tet
opinions
conform
1857
nig
teenage
##ullah
marshal
challenging
ud
presbyter
protective
neighbourhood
posit
healthcare
1859
##ea
eis
##fi
hect
##abi
candy
##illance
hul
##ologically
auditor
##rina
notor
sooner
stumbled
##uka
essex
breathed
cia
caes
hiv
conceived
fees
easter
##umi
##othe
##strong
##oken
proceedings
cuban
grief
sniff
suspicious
neat
conjunction
peng
innovative
napoleon
##ña
highland
sealed
embed
dispers
porn
helmet
ruby
cardinals
suggestion
etern
exciting
demanding
sulf
wives
ek
rescued
developers
unve
heather
comprising
mario
planes
draws
tristan
volcan
civilization
cure
arsenal
choosing
testimony
holmes
adds
mott
rehabil
bowling
forec
prayers
surveillance
##run
jared
fragment
lak
underlying
##iper
directing
semin
tributary
miracle
accepting
mumbai
neur
abbre
dishes
twitter
##ecraft
brooks
sacr
traged
ald
slot
mothers
bastard
##atha
resolved
holder
investigations
belf
withdraw
harass
##aneous
plas
observe
firms
murders
##music
vector
##uctions
##writing
complained
disturb
##k.
lens
stephan
bacteria
monks
notting
utility
##orate
philosophical
motorcycle
tran
cracked
##amo
opposing
##itating
georgian
limestone
startled
edmund
awful
##ogether
##onn
milw
##cano
butterfly
3,000
##etics
workshops
nationally
pard
tore
homosexual
wals
gentleman
casino
##brook
jamaica
holdings
font
reds
shorts
atop
ripped
##ussion
##ogne
aus
incidents
interim
##isse
learns
fulfill
surgeon
ancestors
##rough
##antha
thri
curiosity
custody
altogether
withdrawn
slim
legally
rows
bryan
disabled
rev.
benefic
franco
referendum
immune
##omorph
kara
locals
inquiry
rainfall
knocking
oakland
resolve
dana
staged
##ailing
yah
##elong
##atories
kilometres
##group
atomic
verte
discussing
forew
mentally
mechanics
##ugs
rene
##cu
saskat
politically
performers
assuming
surroundings
refuses
##boro
lub
##asis
scroll
apartments
irre
icon
achievements
stunned
##ao
disciples
tasman
proximity
diana
##umberland
oppress
##guard
algebra
lighth
##omo
ahmed
remarked
fen
urge
##anthrop
rendered
##swick
larvae
environments
friedrich
strictly
##agne
das
matching
ethics
milwaukee
trails
##auc
abortion
shining
qualities
batting
cran
vand
agrees
repairs
neighbors
zones
dolph
deriv
widened
miner
boe
desires
tracking
##p.
katie
accounting
##books
closet
ahmad
magnitude
trevor
bombard
decreased
##furt
lesb
reich
##andra
nintend
##urd
detected
deposits
developer
andrea
infected
bolt
variants
bowed
configuration
diving
interrog
105
rifles
admission
optical
probability
buddy
pepper
##isely
##phone
vicinity
toilet
downstairs
purse
granite
expectations
##orse
ladder
ein
1854
bradley
juven
foundations
compounds
curved
believers
vladimir
jor
interviewed
##200
varies
##aun
propaganda
plateau
##uffed
hostile
frustrated
fathers
pianist
endless
bould
##inely
salary
debr
nintendo
shrine
storyline
yacht
backs
steering
meteor
rt
##adier
stockholm
upr
reiss
marking
rolls
bloom
##lee
grabbing
nak
##xi
##hh
geographic
20,000
ecl
conviction
confron
##esters
halls
intrig
##liga
1855
estimates
philosopher
##bone
##brand
seam
roth
observer
hosting
lyric
goalkeeper
shuff
molecules
squir
piet
governed
marin
##fo
terrorism
competitors
portraits
grac
##atics
aggregate
leices
horm
mistakes
##arth
##aran
##market
reliable
rotation
alumni
shapes
fury
##pin
embarrassed
telegraph
premiers
frig
onwards
irrit
costume
##nels
a.m.
vacant
kang
franz
screenplay
deserve
santi
integral
flipped
##sburg
##ensen
hawk
##idays
westminster
museums
evan
deliberately
evol
ende
calculated
commands
intentions
kend
settling
adjusted
ellis
lur
tense
##azing
durham
fascin
fusion
lgb
##r.
britt
indirect
tackles
precise
authentic
nud
##ourt
congo
lineup
lone
religions
gt
darker
runway
##oku
glowing
accordance
##gon
##ainted
sends
lynn
coloured
cly
##yll
somerset
wherever
contacts
layout
moh
vacation
investigated
summers
canter
beau
preston
consistently
honestly
trustees
exploded
casey
echoed
goss
magnific
exempt
matched
explored
nominations
armstrong
humid
unst
useless
examine
responses
kane
aa
rehe
##usa
varieties
mirr
deciding
telesc
cypr
fay
tips
##si
maya
1858
legends
interrupt
reconna
naming
nah
satisfaction
blessing
welcomed
pregnancy
managers
##aders
brandon
planets
foolish
courtyard
horizontal
supporter
joins
teenager
frightened
diane
1856
manufacture
tunis
unaware
elbow
benedict
##etti
lut
##onso
vacc
brunswick
barracks
spit
teachings
drifted
##rock
groaned
drank
payments
merchants
reconnaissance
bruss
ruined
proposals
revolt
hort
diary
ferdin
triangle
mü
reid
nicknamed
codice
bassist
idiot
abdul
ruin
##.00
pus
bail
capitol
reef
sequences
surfaces
jackie
trin
odds
nottingham
flies
zen
upgraded
andrews
superintendent
molly
##eca
##pling
##py
##j.
institutional
stark
mistaken
##isch
vs.
sox
##rys
##quin
senators
yo
cruiser
quinn
rely
##ulates
##abe
separately
##onna
fierce
##dia
prevention
giov
preval
clust
schem
visitor
measuring
populated
maiden
pavil
forbidden
alar
farther
wart
albanian
indianapolis
aires
este
##illon
specified
continuously
dispos
syll
sussex
newport
crick
slopes
pakistani
expelled
editing
peg
rulers
##rup
archive
buenos
##ichi
diff
amuse
imprisonment
ci
hil
achieving
##auer
##bek
orientation
zhang
bankruptcy
savage
jets
crest
tapped
##anton
frog
##enhagen
##arre
cease
analyst
oath
strain
biz
observatory
##elly
hatred
mobil
finale
unclear
patience
narrowed
sunk
expense
decay
consumers
ridiculous
##imeter
premises
treasury
##hra
eugene
guarantee
rdquo
##held
##atis
uprising
logical
liby
##boys
estimate
homeland
assassination
##urated
elimination
toxic
sas
deterior
sofa
##quer
simpson
vinyl
##agram
##rium
investments
disk
thermal
inclusion
ashley
##len
##aid
editors
sunny
eva
janet
ned
endeav
marco
automobile
lacked
##grade
algorithm
equity
##igs
curtis
velocity
##bage
##chan
disappointment
tul
tok
hass
##asped
jal
bomber
geographical
sard
leslie
chev
stripped
traced
portfol
catalog
soup
schm
1,5
flan
##uro
pp
cornwall
##gio
heated
errors
laps
peered
batteries
bib
##enders
collector
moor
cups
oxid
##arten
chord
remembering
shifting
apollo
risks
##chron
##leton
##pack
withdrawal
gazed
princeton
tril
viewing
supposedly
unrel
##rus
mentor
##anor
profound
finest
cyber
mb
delegates
tackle
suited
inspection
##alm
##xy
chronicle
tucked
passport
precisely
dé
troubles
lounge
reson
cathol
patric
poets
fantastic
preventing
shane
clara
republicans
reflecting
questioning
interf
vanished
kenneth
primitive
melan
##ounted
gaming
dong
anxious
tradem
##shine
debris
demonstration
##borg
##tershire
milton
brussels
computing
##eded
differently
johannes
##took
rabbit
undertaken
sharply
plantation
##uto
serie
lacking
pension
hire
fragments
traces
##actic
winston
incor
##gel
vii
exchanged
09
rovers
nightmare
geneva
sd
pockets
1851
juice
machinery
antiqu
shouting
composers
poles
acre
chron
kne
hugo
rotten
ethn
clue
ecu
powell
davies
scouts
lgbt
ratt
folks
scripture
celest
foul
framed
enterprises
hale
curled
##ribe
##olith
##stock
considers
presumably
skilled
introducing
hypothesis
joel
livest
hex
complaints
encouraging
countryside
mia
insane
##insky
accuracy
backup
advancing
strongest
gains
50,000
##apur
crap
empress
acceptable
##inos
glou
shoe
##ml
stance
mice
criticised
##ás
listing
auxili
buddha
practition
donna
feminist
crushed
teammate
##ión
ought
evid
scotia
flooded
joey
kicking
java
lied
lancash
suits
08
##oqu
seeks
eliminate
aftermath
ballot
##napping
endors
lancashire
##ormal
vegetables
happily
belarus
smallest
dictionary
tick
##inte
calvin
##mir
##awed
sexy
clever
revived
monet
pollution
##ilian
exercises
emir
technological
copenhagen
crowned
##ouched
endangered
cops
delegation
##jay
stole
wan
titan
rhode
surprisingly
virtue
kingston
numer
bullets
gan
shan
acclaim
##gage
streaming
##family
bicycle
sah
ultr
##osc
##inae
destroyer
fancy
depths
sib
ibm
correctly
olivia
mistress
receptor
acclaimed
bottles
sensed
##hell
blacks
agreements
blades
keeper
inver
surrendered
circus
##osure
limbs
sorts
dag
1840
##thouse
growled
favorable
khal
epid
counting
staircase
rodrig
grie
freshman
deceased
##idy
##phis
supervision
##anges
manit
blown
gael
lia
seventy
torch
afterward
santiago
serp
entries
cycling
nipp
pilgrim
gastropod
marian
louder
glenn
magist
volcano
guang
accompanying
beats
engr
particle
tray
integrity
timing
presbyterian
pillow
surpass
essays
cale
flora
##avi
bounded
kai
nons
genesis
detection
rhe
restr
babies
invaded
conversations
##rdquo
##oline
gripped
aliens
sop
##eur
##icating
encycl
popped
skating
crews
1852
realizes
airing
discipl
fergus
##ovsky
nato
adri
diagnosed
diploma
merced
unse
glacier
trek
blocking
tah
barnes
governmental
reluctantly
suspicion
ferdinand
shelf
hunters
##uf
cursed
mankind
saxon
intimate
lumber
outfit
##icus
panc
missiles
casc
projected
alphabet
pie
106
cognitive
##dan
stamp
jade
congr
##oshi
suck
##ema
sophistic
lighthouse
czechosl
furious
loans
canterbury
bce
helpless
entities
presenting
unified
alc
fis
recreational
researcher
update
prohibited
##isive
dwarf
boring
##uras
indie
##sha
greens
promotional
flowering
henderson
1853
momentum
membrane
cute
visc
midst
##oi
##zig
##uba
hindi
hms
##ylum
##houses
noon
##ellers
brent
governance
idaho
terrified
ner
richardson
sunshine
settings
scanned
doubled
jol
##ulture
shells
##core
orland
faction
##lies
posthum
wireless
proceeds
marion
##foot
envelope
livestock
leis
positioned
requests
meditation
bradford
catholics
interference
nerves
bliss
quint
eli
rivalry
crist
tampa
organize
pars
unha
battalions
bye
cardiff
gotta
##ente
allan
##oque
profits
philanthrop
sizes
tac
##enne
veins
uganda
##kel
dul
reflects
##ān
##istically
morocco
renovation
referee
millennium
crowded
cres
deuts
palms
masses
grind
backward
manuscripts
##apor
performs
bosnia
##ishi
freestyle
mcdonald
depicting
cough
sinking
##jud
provider
dancers
hath
vick
flagship
dominican
tracy
arctic
summar
thriller
pere
artifacts
cyprus
pose
escal
facilitate
tended
edgar
objectives
void
enthusi
fitness
##horn
vacu
mh
rainbow
tunnels
paulo
exploring
wesley
##otherap
anticipated
wickets
##enstein
rosa
##atorial
exhibits
delicate
##loe
distracted
regulatory
organs
rectangular
##iasm
synthesis
crim
remem
rebounds
fitting
1849
villagers
irrig
invested
relegation
dair
350
claude
singular
lapt
possibilities
kad
##anger
performer
capability
clenched
corrupt
monuments
kazakh
gavin
##ovan
pathway
108
##ieu
facade
lithuania
##ophone
rubbing
regiments
damned
##ocene
malta
##woman
reinforced
##chair
##erving
ribs
hp
memphis
offsh
xx
mortal
randy
conclus
##kees
assert
eyebrow
chef
mandatory
labels
##cz
dud
aristocr
organizing
newfound
diagnosis
latino
theorem
illusion
overnight
reynolds
tragedy
ninet
##70
constantin
alike
quot
darling
##rav
##iffe
##hyd
wishing
storey
##urities
lovers
clif
urugu
gibson
pag
##but
emin
##alling
pizza
stealing
rs
protagonist
missionaries
##amine
volcanic
plac
smugg
attain
agenda
wim
expenses
recurring
hopkins
incomp
geological
regained
danced
disorders
ambulance
dee
oriental
voltage
sponsor
scrub
ankle
##ellar
enclosed
lutheran
genius
caves
monroe
vale
tubes
container
1847
##thood
talented
imported
lanes
kenny
##elin
magnet
bombers
applying
carb
allmusic
lengths
f.c.
prayed
mint
tire
dhar
snail
elders
3.5
recommendations
104
oc
anonymous
highways
remin
##attering
flown
caution
plural
toys
emmy
sheer
trash
knot
pleaded
kisses
giovanni
##atter
gentlemen
thresh
nutrition
maternal
guru
mund
miranda
##esy
toes
##unting
contracted
reapp
ct
depri
melissa
audition
rigid
sacrament
windsor
saddle
ding
discour
advances
shi
surrey
149
lantern
strait
dup
burton
rapper
##plane
accordingly
struggles
plasma
consulting
factories
dressing
supernatural
enthusiasm
marl
ceremonies
expressions
françois
renovated
towel
sting
careers
scow
##linary
shen
loading
istan
statues
unoff
nervously
skirt
cunning
embarked
answering
##eches
cn
battlefield
##kal
employer
refr
arche
miners
gameplay
##pring
batman
lets
rou
ecuador
unders
soci
coug
intimid
seating
subordin
frames
bash
ist
##loaded
haul
newer
gown
savings
##matic
##iii
despair
gag
cambod
guidelines
blamed
##stead
stretching
brighton
ket
bohem
cis
humili
filipino
waving
##atem
screens
drained
insect
elf
sworn
##usive
gravel
zimb
##iently
voluntary
myr
premiership
##gov
allocated
protested
crater
commercially
sleeve
eleanor
##iary
brien
embedded
paralymp
pierce
habitats
istanbul
nicole
occupy
clad
initiatives
tina
oslo
##lings
sunset
##rics
vicar
arrows
##lane
sharon
corpse
invention
guessed
colleague
##gary
woodland
helena
cri
locks
obtaining
##abling
##isers
plymouth
remnants
dund
prair
freak
reconcil
successive
pix
##abwe
##arin
selfish
organisms
makers
preceding
valued
sco
annoyed
assumption
mw
punish
legitimate
##encia
wrap
scramb
1846
orlando
digging
orphan
haired
spells
sculptures
conquered
propriet
berry
charm
covenant
troubled
rehears
café
##agic
dealer
salvador
teaches
fernando
toe
raiders
notre
lace
accommodation
paran
##rians
auxiliary
##zon
##shot
sophia
whites
unch
sectors
gum
##osystem
anthology
##iping
warwick
crush
##cery
##ija
##uffs
screening
blanc
motif
dio
adequate
psy
zimbabwe
violation
armored
chips
cricketer
espn
dynamics
##hero
meals
mell
complexity
zam
nurses
spelling
fists
##azi
measurement
blowing
engaging
##abs
mumbled
##hev
##anti
##enary
1500
##ials
councils
##ław
homer
griffin
##athetic
luxem
##ayed
investigating
##chewan
talents
lithuanian
astronom
specimen
shepherd
contacted
expertise
troll
deployment
combine
pursuing
corporations
##éd
cleaned
ponder
carne
##erm
##agonal
saskatchewan
alpine
overth
lynch
##ifax
coral
speeds
coupled
##inkled
##rene
stefan
julius
carmen
persuaded
katherine
##elihood
skept
raids
murmured
inaugurated
qing
mph
##post
minded
refres
tendency
potter
uniforms
beef
1.2
bells
fang
brom
screams
eup
##rh
##tail
sketch
attributes
##hou
eman
##utical
##oft
buddhism
disbelief
consolidated
scratch
##rams
##wind
##ilee
adher
undergo
commanders
glancing
kumar
##cence
solic
motioned
donations
smelled
caring
cope
steadily
reluctant
peripher
critically
vall
zion
##enches
135
scra
upward
enrollment
amalgam
##comes
sadness
owing
depicts
marina
eden
amusement
bulld
armenia
##uder
128
boxer
froze
scenario
heating
mush
technically
downs
albania
alexandria
1812
quartet
##ardi
evangelical
comprised
graduates
certification
belgrade
phones
hydra
slender
excessive
bothered
yuan
felix
cooperative
stroll
spawn
##eit
pity
jointly
coordinator
roller
emissions
##leum
willow
wage
arise
##fold
tucker
nsw
clause
salmon
therm
360
unsure
##rob
##chin
fraser
sailors
isolation
nass
synag
governors
flint
tremend
playwright
asset
arrog
07
thoroughly
##kir
availability
slapped
##mie
leisure
##cony
bubble
prosecution
duff
fossils
##grily
submit
postp
##uer
109
103
encounters
##indy
correspondence
cohen
##iba
purely
inflict
unic
prints
carroll
unveiled
treasurer
salem
lauren
hardy
applies
driveway
##iscal
sensit
sentiment
contestants
elephant
robertson
stap
crowds
fails
##abl
albany
ussr
ginger
freeway
clip
sculptor
angles
##lend
jing
dinosaur
regards
emil
1845
carc
dagger
clement
majesty
##hart
##asium
grandd
tribun
calgary
prussian
variables
##amas
dens
##onduct
##inus
courthouse
kot
##rice
doctoral
hazard
averaged
brigadier
peaks
##hurst
1830
hoff
retreated
edwin
halifax
cloak
barg
richards
swamp
morrison
##iott
generous
rhine
jub
categor
subway
sucked
rats
shirts
ves
phant
readily
canvas
##aceutical
deeds
##ochem
transmitted
charitable
##ulent
falcon
##45
nationals
experiencing
timothy
sorrow
placement
##imo
vag
conced
reunited
criminals
dorothy
lah
incorrect
mitch
trainer
mandate
unsuccessfully
115
refusing
reagan
ved
kern
pounding
compare
##otypes
cassie
pavilion
frankfurt
##astics
brock
##aton
##ropical
wax
emigrated
preacher
longtime
telecommun
adul
hs
incom
comedian
unnecess
scal
static
arcade
##holder
spelled
pref
amen
glam
lent
##izations
shark
lyon
ole
branded
airborne
monkey
novelist
##rella
acute
nm
lancaster
shattered
##inched
manitoba
pamp
stafford
maneuver
rhet
samantha
nixon
postal
conting
genres
##aru
compart
##amy
subspec
chir
compromise
belfast
mercedes
portfolio
designers
tavern
rc
discharge
naples
presenter
churchill
martyr
advocated
montene
gö
rector
kom
##neys
thames
sentences
mcm
theft
provisional
complaint
terrace
carpenter
pottery
praying
albeit
sided
##ogene
##bol
immigrant
guatem
##mail
carriers
licence
##wyn
neighborhoods
##ounded
##opic
mond
mixing
##onal
hmm
addresses
evolutionary
magnificent
##azar
springfield
ley
flut
ultra
pud
ashes
ludwig
bedford
nab
incarn
instances
practicing
horns
mythology
megan
##lights
shiva
blair
sandwich
combining
##eh
ish
disturbed
wanna
wandered
christine
overd
eternity
zombie
outlets
vacuum
robe
##nar
jerked
reverend
lesbian
##t.
##ostic
##olan
##through
monica
##osity
baroque
##storm
##ikes
asylum
meantime
reper
metabol
regain
inheritance
erik
viii
sadly
twe
semifinals
##eni
##apa
stalin
##ril
athen
narrowly
typh
snar
presidents
theodore
plug
fuller
oy
whip
bran
curves
dive
penc
sweep
nobel
feedback
quantity
##asted
emerge
##children
concord
waterfall
##ighed
genera
##smith
chasing
glare
badge
limitations
muff
aided
##asting
attained
preceded
iso
maple
edmon
travis
highlighted
generals
asteroid
nails
##oused
ecosystem
hover
burke
##lic
##wed
portsmouth
##irical
willie
appreciated
abbrevi
129
hm
kann
holidays
rochester
nadu
identifying
1837
yar
##uy
balanced
sandstone
microp
pupil
##inas
##onica
unbel
trembling
explorer
reservation
hann
lateral
cyclone
##upp
functioning
nh
##imer
kidnapped
##eroy
rumors
tanz
anticipation
##akening
plaster
##geon
gymnasium
progressed
tribune
tattoo
threshold
marching
carlo
coy
colt
exceptional
motivated
##lamation
dramatically
107
websites
partition
hr
##entric
ree
opted
knox
goodness
bordered
marginal
gad
lomb
wagner
picks
bras
##enzo
destruct
traits
incredibly
middles
geography
incons
sponsorship
05
wei
valve
##rosion
cay
shields
06
treating
resurrection
digest
conscience
deserved
hayes
generating
##wald
decorative
disputed
summoned
locate
wade
ricky
finite
##35
helpful
jog
reversed
dairy
intensive
linking
##v.
flet
ineff
autobiography
weakened
lately
insuff
sofia
participant
physicians
substr
bard
antarctic
boeing
phillip
stuffed
##ographed
stain
taller
verbal
irr
##rio
##wen
trafficking
nobility
highlights
##lif
##awi
heavens
simul
measurements
##heng
catches
exceptions
pharmaceutical
wond
##mented
##cor
edmonton
##flow
cedar
humanitarian
##hips
shawn
precision
##tc
reviewer
900
ecclesiast
explosive
nate
confederation
##ár
subspecies
redevelop
##heric
arched
quarry
throws
noun
classics
pyramid
twelf
parted
2.0
leap
tara
balcony
professionally
slovenia
villain
aspir
nasty
swir
geometry
##hey
twelfth
anarch
gus
muk
chass
defines
dayton
needle
mutations
wrestler
default
##rsquot
supers
advers
145
regulated
filter
tuber
feathers
baltic
borrowed
sage
##olar
resides
natalie
quarterf
wages
##mu
providers
synchron
conservatives
schemes
pomp
laughs
ghosts
abn
##ordination
informal
fiscal
rankings
iw
invite
accompany
mau
winters
roses
speedway
##atri
##keys
oversee
meadow
hears
publicity
pirate
spher
tricks
nuts
##kinson
rehabilitation
energ
scots
zar
htt
lengthy
develops
swallow
bundes
starter
1841
25th
tightened
disputes
vish
##sted
1844
eighty
buttons
auditorium
cane
judged
marketed
##pleas
sabha
wik
##eme
confronted
duchy
americas
##uded
confined
##immer
##ioned
tends
##onne
##andro
bhar
continually
127
transmitter
##ocaust
conquer
endorsed
crimson
carm
superman
demo
spacecraft
##aternity
##aus
##mith
alder
chemicals
flip
##qual
similarities
plun
punct
enabling
##icular
mammals
##abel
brutal
waking
aberde
##hton
unemployment
##ablo
##idian
##vol
cooling
knockout
##elect
##urned
##oks
gorgeous
sophisticated
insurg
stems
sued
forgiveness
wick
pagan
sexually
1836
crad
##oan
sep
prominence
explicitly
##izable
##lia
elliott
pengu
crawford
sneak
polo
##rep
##ifiers
##ku
securing
patted
percy
wwe
anders
stur
cultiv
##ados
1838
##unda
symbolic
dex
boo
broader
amphib
krishna
wad
alexandra
trauma
nigerian
cylind
aloud
armoured
pater
##irus
macdonald
dove
mickey
roug
pes
paramount
exagger
##wy
ivy
yoga
##.rdquo
ribbon
maxwell
loft
gin
omn
acknowledge
itv
realization
inevitable
charleston
visions
holocaust
speculation
breakthrough
aging
insign
collaborative
mk
spectacular
##lace
hissed
##eri
##stadt
crust
1839
##enheim
kingdoms
##bag
mound
gifted
nickel
metals
capturing
addressing
favored
gestured
utt
celebrations
disrupt
boris
modes
bacon
awes
orchestr
laptop
hog
microsc
##berto
systematic
surgical
sterling
princes
roland
hawks
calmly
fundra
parameters
obed
shotgun
30,000
deputies
appealed
termed
erupted
toby
gambling
##sty
resistant
##zel
dances
feminine
ingredients
ancestry
preference
mister
cooked
specially
prolong
nominee
prizes
##arms
##hess
##list
##marks
adjo
grandma
##oub
lug
yankees
marker
stint
amar
realistic
euc
regent
##iggered
gloss
seoul
possessions
sik
metallic
strangers
ranger
brooke
##uru
outcomes
appreciation
android
##icz
##alis
rna
xavier
heavier
residing
clare
plague
scorer
##uated
daylight
sacrific
accredited
switching
prairie
##oured
macedonia
wicket
##beck
eleventh
reopened
pave
##idan
percussion
mongol
cellular
##ommon
trademark
wyoming
wards
##fu
storms
kell
derives
unpre
watches
brav
apoc
anto
offspring
abundant
terrest
adoles
medi
affecting
terminated
atp
lec
kö
stip
drill
bees
piv
ethiopia
nd
dose
escorted
reunion
ns
reminisc
loosely
gateway
immortal
sings
spont
meyer
limp
admired
##vie
gaelic
119
##ritic
##uity
uncertainty
##otherapy
screened
lill
gloves
iris
reporters
cull
backst
##neum
guaranteed
hudd
russians
stays
dwelling
luxembourg
johns
##stal
##blance
##unks
gree
##advant
overlooking
##elage
empl
barber
atoms
excluded
diplomat
launching
sticks
mons
##amous
distances
##bis
angrily
decoration
subfamily
usc
phases
countless
fraction
tilted
themed
##ogenic
##38
dominic
forbes
##uta
claws
##alus
utilized
cinemat
parach
wandering
slower
reasoning
afc
##print
spike
minne
cornell
beatles
sanction
##pc
##arta
illustrations
detachment
underwater
##rsquos
bis
1842
caesar
##inia
amelia
comparable
monarchy
dante
yak
disadvant
shipped
##jord
behold
motiv
mlb
fiber
raja
podcast
fres
formats
##pi
statute
beaches
realise
chromos
productive
needing
loch
retrieve
bros.
ripp
submission
ideology
scarlet
effectiveness
wolver
peers
puzzle
necessity
herman
cairo
unhappy
newcom
patriots
##krit
##gins
##iman
ez
overhe
squadrons
##kl
##uana
vatican
thirds
##say
slate
##opol
##hist
watershed
##nu
enlarged
ix
##ective
guides
nikol
##jev
fian
punched
nay
advantages
enacted
determining
carnegie
shoots
segreg
browns
1832
##appa
tomatoes
carson
##ollen
importantly
nodding
shiny
skate
andré
acids
disability
spiral
councillor
dupl
fug
financing
rented
tad
marcel
kinderg
providence
compatible
##o.
consp
impair
petroleum
inception
1835
lum
module
unfold
watts
sympathy
pronoun
gustav
translator
##esian
knelt
halted
abby
correspondent
niel
##är
giggled
leased
rash
dental
cowboys
natives
jed
##aceous
partnered
chaired
abolition
vain
celebrities
stella
pé
axe
##ilo
addiction
spectators
cavern
drainage
lunar
shine
equations
jewelry
trous
protesters
leapt
monetary
thief
descendant
versa
ulster
backpack
dodge
breakdown
infilt
serpent
athe
guit
##bear
prussia
spoon
elegant
swinging
compliment
amp
parishes
##idt
outsk
rowing
kosovo
embraced
defenders
salon
maf
mats
incent
declare
amino
pony
compuls
jeffrey
dissolution
interfer
delivering
exotic
satisfy
laboratories
leicester
deity
hesit
juvenile
facial
loses
zhu
hak
expressing
chloe
nave
translations
deposit
##ben
retros
crept
##berger
baldwin
worm
##aney
##ysis
alignment
undertook
dedication
interm
galleries
##ophy
##sten
prosecutor
1843
sovereignty
hern
ensuring
sherman
glimp
johnston
inflam
constitute
consecrated
peculi
##pered
adviser
habits
delegate
cycles
ré
crawled
activation
sind
##gee
adorn
winnipe
lé
unusually
yemen
examining
##odies
##eut
glimpse
humble
greene
quantities
scrut
bred
plaque
##aden
##obic
observing
##atham
##sworth
winnipeg
laf
gob
##lette
marty
canoe
personalities
ambitious
paved
##idel
preparations
lal
levi
peculiar
grandpar
mathematic
awesome
pastoral
cyp
louisville
doubts
labeled
remarks
congrat
##leigh
newman
controller
indication
substantially
dared
rude
##orne
betrayed
##adequ
##long
upwards
kod
cries
##imed
uz
overwhelmed
och
##inqu
kerry
arbitr
##rave
scandin
conservatory
sanskrit
prophets
outskirts
prone
shu
gujar
signaling
warming
imaging
redesign
cuis
collision
charging
detention
crane
melt
##antically
skip
inadequ
owe
valleys
thanked
ava
pharmac
brady
striker
detached
0.1
anthem
travers
relate
homest
##harmon
##irable
##ycles
sock
targeting
employers
constantinople
shifts
bucket
inferior
mang
##pot
coordinates
alma
hiro
flags
##asse
papa
##hammed
premium
clyde
implies
recommendation
madras
##ultural
jenkins
fortunately
##enny
shrie
sitcom
nacional
##rill
nim
breach
unfair
##bard
nineteen
tian
rides
bian
deserted
buc
templ
replies
rosen
caleb
eyel
surveyed
defining
##uku
papal
arrange
glorious
pt
##xide
trilogy
vor
##rand
damages
prolific
progression
hairs
surveys
##bot
##ør
tensions
predators
lydia
##alon
complications
vivid
poker
firef
wildc
upgrade
unrest
cousins
shack
petty
theaters
flexible
ucla
adolf
highlands
ours
rans
therapeut
yearly
obliv
affects
jokes
4,000
terrestrial
consul
tant
chassis
##hat
physic
finishes
ecological
mascul
daisy
corinth
##lean
apologize
seasonal
germ
incomple
outward
abundance
resemble
demolition
148
##icism
rita
roar
##asan
##yson
inflamm
jasper
whale
##abul
triggered
polyt
carnival
isabella
regener
strained
##nom
##ithe
repet
##flies
fow
pissed
##oche
handing
resided
tremendous
##jin
elis
turbo
yelling
defunct
southampton
passages
mccar
elena
147
##lay
##iffs
escaping
##ulin
confession
whitney
cors
##kk
innocence
captive
ethical
##ulously
perfection
communists
garbage
bum
burma
##heads
ds
##utors
##quez
shannon
immense
refurb
mps
##oya
126
caucas
charted
retro
genome
santos
dignity
werew
constituted
minneapolis
##ahu
guitars
haunted
ecclesiastical
abbreviated
professors
passionate
generic
guad
##ender
wasted
expend
wink
##tenham
madonna
traders
weighed
dreaming
vander
##efe
whistle
inventory
polymer
##cock
promptly
vom
wholly
aria
paw
##48
puzzled
##htra
judy
enables
pools
methyl
##100
submer
covent
lightweight
teamed
linguistic
cologne
##atti
cove
102
autonomy
convincing
tops
inequ
humph
uran
designing
subjected
teens
dragging
outline
##rang
funk
##recht
emphasized
fletcher
117
retaining
treatments
implications
modifications
sufficiently
candle
spill
pok
madness
bloss
gasp
catalogue
hij
presently
midway
sociology
penalties
##rec
calder
awe
radius
##mud
offshore
executives
0.5
##jected
brewery
portable
##zan
##omal
##orum
advocacy
recyc
summary
tribunal
##mered
138
1815
gloria
0.0
adren
dab
##ometer
mare
nonsense
abel
daytime
rituals
##urai
walsh
erin
nina
devotion
noticing
mord
differential
##ndez
herm
securities
nk
cafe
metac
stressed
automated
interd
unm
cush
locker
consortium
motivation
blunt
indul
118
modeling
##emia
synthetic
transactions
wartime
drought
physi
flowed
perimeter
attitudes
##hausen
##rag
dess
beasts
estonia
benz
cyt
##athed
dude
transpl
##33
accessed
malaysian
##rano
broadly
trinidad
yugoslav
tc
herd
freezing
nowad
unofficial
beams
dubai
nods
aligned
accepts
shortened
negro
tipped
straightened
pays
unnecessary
cindy
hierarchy
1.6
##usions
puff
sf
comparing
joyce
dealers
georges
linux
ballad
##club
murderer
nowadays
atmospheric
geoffrey
##ño
trends
coward
agu
berth
sidewalk
niece
##oso
##olithic
oliv
chu
##vy
bing
analyt
prosperity
siber
irrigation
griffith
##iaz
purchasing
##gart
advocates
operative
indef
celebrating
panch
economist
swiftly
shudd
polished
##giving
slipping
financially
maría
elm
commissioners
guardians
##ascular
bean
diamonds
kindness
charming
loaned
advancement
ferguson
phenomena
kok
scare
downstream
##uez
disciplines
balloon
##ommission
aberdeen
unin
checks
cosmic
vigil
sophom
judging
jup
bushes
paired
tutor
ancestor
ufc
landown
lemon
prejud
##odynam
pretending
inserted
garcia
##unciation
##shi
succeeding
drowned
laund
##wi
positively
scary
worsh
morm
chop
sediment
mā
skyl
allison
comr
confrontation
differs
brains
ivory
solemn
chilean
gwen
pomer
algeria
sailor
ordering
aesthetic
##lez
collectively
winger
bess
underc
tires
ignorance
patricia
inmates
tasked
bruno
manning
sew
urg
teenagers
garnered
embry
incomplete
##kie
slaughter
squeeze
sabb
disappro
freshwater
beans
showc
competitor
enlighten
chrys
tart
dusty
umbrella
sicily
trench
##cestershire
passive
##maker
shirley
rockets
sideways
duchess
delicious
##atsu
hazel
helicopters
heel
mish
##ulative
gyp
##empl
conventions
displaced
trailed
usher
malt
lyc
brotherhood
##vs
yun
04
flashing
syrac
vars
hampton
abbot
##zzle
transaction
##irth
solved
relied
pouring
hawaiian
demise
##tel
apology
xbox
overtime
scholarly
robust
telescope
eased
dorsal
##aby
crashing
##ifa
##fulness
kau
accusations
##acter
aka
smack
violently
contributor
vass
incorporate
utterly
specialty
compliance
repent
xen
rak
sympathetic
stubborn
tortured
pneum
grocery
##adic
wholes
venus
##emon
ceremonial
kindergarten
refugee
strode
grandparents
oss
recovering
hectares
curling
decisive
116
survivor
peaking
miz
grinning
cultivated
bulls
narrator
expressway
chased
filmmaker
teammates
knuck
herze
1880s
whereby
amazed
1834
revenues
conclusions
snakes
##rooms
pipes
riots
comeback
marriages
mortality
thighs
cone
##iances
suspects
nes
castro
nascar
wears
newfoundland
##gence
assessed
sharks
philippe
subdivision
inact
butcher
shrew
shri
descriptions
##ups
kaw
grape
nazis
mins
weekday
ik
gluc
139
##quis
1814
##leen
doom
##apest
rapt
contempor
homestead
suppressed
grandchildren
percept
sandra
goose
granddaughter
##will
##manship
mackenz
picnic
carrie
pageant
##cely
ench
tablet
##ells
gp
ads
rejection
##esses
venge
uncommon
wrath
juda
slovakia
disposal
jumps
llc
leigh
zak
supervisor
budapest
wald
revision
documentation
psychic
equil
negotiate
pinned
##arag
polite
dion
synagogue
wipe
misunder
##terson
unesco
fals
broadcaster
##rifying
floated
bombardment
ringing
##opp
selective
superc
urgent
landscapes
exited
##anners
conception
snorted
##ijuana
bizarre
tissues
shire
apprentice
heinrich
vernon
vy
casually
bugs
bounced
sg
farewell
transparent
146
imagery
##ribly
peasants
chak
##nt
lymph
europeans
clem
##izers
greeks
podium
pillars
sexuality
ninety
vaug
formations
augustus
wc
##ijah
binary
2.4
##iens
dialects
agnes
huss
confirmation
liberals
accidents
concurr
prophecy
zur
classrooms
hurling
##h.
minerals
ich
hitch
refriger
remake
syracuse
conrad
patrons
eurovision
wyn
##getown
lebanese
##illion
##ienne
soaked
camping
herzegov
limb
precurs
vs
saul
##nas
leip
1,500
inability
sacramento
gim
##reet
crum
skeleton
nicolas
miserable
disappearance
costumes
sauce
1.3
moan
fulfilled
##loo
precipitation
##hm
rica
stamps
elb
##l.
painters
humanities
ronnie
##orian
builder
uncont
healed
mohammad
mikh
groan
asserted
textile
kul
gandhi
atlas
châ
clarity
beneficial
strips
sensitivity
tracked
wendy
rue
educator
acquaint
pang
trades
strick
##ei
stephanie
##rea
##roft
superhero
##f.
##utta
archaeology
##ono
chenn
devi
rept
##alan
##olin
gibral
molecule
##drop
posed
repaired
philharmon
##anders
neighbours
falc
mackenzie
teresa
harp
jules
depressed
toyota
inning
dixon
punished
gian
##irmed
##arf
madame
saves
bavaria
necklace
retrieved
hiking
decommission
##ippers
##jiang
whim
##enza
commercials
genoc
liquor
cowboy
bisc
incon
cheng
clusters
cliffs
dismant
ernst
notorious
##yards
sticking
ellie
confisc
cubic
##season
medication
viral
bias
winding
sidney
##adh
nil
fashioned
hyde
privilege
1820
3000
mé
##lusive
begged
##stones
vod
fri
baden
gibraltar
aisle
ces
##edo
resembles
inscriptions
eclip
perse
deed
##rust
##sover
##appropri
bombay
peasant
varsity
nj
##aphor
discovering
freeman
##gil
1.1
1831
freel
claw
##inki
myan
www.
rafael
memorable
ef
coordination
morton
cultivation
processed
auburn
challenger
nutri
##abulary
##yd
aiming
exempl
smash
shooter
chronicles
barriers
brightly
heavenly
##este
coined
float
substances
hypn
resent
domains
clam
##arp
norton
declaring
##alid
##alism
hector
##etically
venet
acet
lineage
silva
migrated
##with
carey
patches
leh
kidding
debts
maharas
mccl
paragu
kuwa
wheelchair
unwilling
thomson
##onaut
janeiro
reli
solving
incap
dissip
##othed
boulder
1833
evacuated
crun
encoded
sweeping
valentine
finalist
##icts
reappear
melted
bureauc
attachment
violations
nucleus
extant
3.0
waitress
vint
frequencies
##iatus
safer
affiliation
##bons
copa
ldquo
negotiated
miniature
ou
##umen
##retched
ventures
pipeline
emotionally
uttar
##atro
clash
webb
ans
myanmar
viz
lobb
leah
attractions
midland
beaver
commissions
tones
peac
spor
mae
kazakhstan
agony
##ariat
tragic
racism
coch
124
restruct
prat
sore
hyster
donation
strengthened
chartered
fiji
tiles
supervised
escapes
klein
koch
137
elvis
shrug
##amon
clown
brett
telecommunications
concealed
elong
suffolk
floyd
persuade
tibetan
accurately
yel
piper
emble
contestant
uruguay
persecution
davidson
##tw
emeritus
pots
owed
prolifer
excluding
implied
pike
underway
##worthy
apostolic
cumberland
hopeless
juliet
victorious
ensuing
resisted
supper
karnat
mobility
##gender
lisbon
##stick
smashed
justified
##raged
alicia
bew
publishes
##chief
institutes
denis
no.
individually
announcing
gardner
constituencies
dominion
commentator
sensors
batted
gale
baghd
amused
alec
affirm
##ipel
##chel
hutch
chennai
encycloped
herzegovina
hag
tonnes
roberto
##emann
concentrations
trot
muscular
tallest
##iden
drawer
conson
superv
unexpectedly
turks
rao
136
##36
demonstrations
croc
darren
qatar
##rise
reduces
robes
prose
alcoh
##bes
cuisine
motto
weekends
intersect
ashamed
submarines
dm
lifelong
responding
crude
boyd
playground
fortified
disturbing
tiff
dru
entertaining
trout
venom
goat
theatres
114
##lore
sensor
simulation
defenses
##anto
visa
astr
cic
tb
##luence
sach
basal
devils
webster
composite
guatemala
edu
zool
ambig
hallow
teddy
mohammed
respir
stool
ruf
mage
honda
##lair
##itas
notices
resume
outlet
itunes
lep
embarrassment
wen
coronation
yer
##aram
optional
sque
acquiring
mollusk
##itational
scriptures
handball
##arity
dix
cir
whispers
wield
insufficient
shores
fleeing
##building
robots
coleman
listeners
impacts
##ango
jacqu
temp
ruff
sickness
garrett
##unken
flatt
impul
citation
##enko
crom
motorway
outright
assure
photographic
##nde
huff
cadet
sno
additions
velvet
tasmania
adjoining
devastated
sanders
rox
hels
karnataka
conve
bucks
numb
antio
madag
heck
15,000
folding
stomp
pert
hurting
moonlight
stirred
deton
jorge
sé
kens
##alla
##hran
savannah
parkway
fatig
##like
##hany
rewarded
leak
offerings
stump
##iker
viscount
2.3
mates
proving
rall
##oye
continuation
##nian
attach
vein
scanning
synod
kins
##anas
144
bates
brac
stabbed
##iche
sis
intake
immers
fade
soils
councillors
aquatic
liner
robbery
rp
boyc
maharashtra
sparks
aluminum
pied
cecil
generator
forens
thie
emergence
creativity
convenient
rebuild
blows
lup
##chem
inflation
##tles
spraw
patriot
lc
breaths
trailing
pf
vague
countess
##iu
sketches
absurd
##zie
##bb
sheikh
equilib
nightclub
aquar
transcript
flam
jagu
steward
nobles
injection
sensing
caste
insert
##oupe
prohibition
vince
sophomore
append
judgement
doubted
scenic
zeus
stoke
neal
rw
vanessa
chapman
sonic
slumped
constituent
commemorate
astronomy
contamin
tolerance
##affe
co.
b.a.
seab
platoon
illustr
merge
norwich
500,000
lotus
jessie
mikhail
gore
##erick
shank
dominance
regina
jupiter
prehist
mural
potatoes
##arez
##pps
incorporating
downward
##pow
inventor
socially
nitrogen
declining
socio
panthers
spatial
fearing
avery
tud
earnest
##atching
##gia
##ād
canceled
feeds
##thia
promotes
pills
##arte
##fts
##zek
##hardt
cw
4.5
mapping
successes
paced
##uation
kob
georgetown
tanzania
neill
woody
kidney
resemblance
cockpit
benny
##atches
##ports
squirrel
elliot
2.8
occupying
sober
telugu
marrying
strangely
reperto
occurrence
##iza
dolphins
adrenal
raises
crystals
lime
leopold
ero
fireplace
solitary
subtropical
ditch
assim
skelet
theolog
200,000
zha
nicol
intric
leipzig
empower
lava
screenwriter
toul
salam
reflex
2.2
colorful
pamph
nonpro
apex
contempt
fert
sponsors
coffin
##vine
rotating
##arios
guarded
apt
unfortunate
submerged
tuc
tate
saga
speeches
bengali
posthumously
karma
saturn
nail
prevalent
mega
yuk
1825
eighteenth
facto
parag
crab
skiing
lethal
pioneers
organizational
sacked
##anca
##raph
licensing
obstacles
edged
forestry
##igi
conceptual
##dioc
##aste
bricks
##bledon
zombies
##plus
reside
wah
##andi
folklore
parody
##lements
volunteered
comply
transcend
subsid
reloc
observers
fisheries
inclined
constantine
bays
hered
##acies
slap
##shan
shouts
arabs
ae
0.2
forewings
mered
gull
airplane
plaint
scrib
leone
archdioc
baptism
para
shades
hyder
traum
##bee
blink
jonas
crescent
##ensed
portrayal
sarcast
sincer
illuminated
jug
sodium
projection
dell
appet
seiz
repeal
coh
##look
ia
hesitation
hostage
firearms
ibrah
electrom
tess
financed
haj
encompasses
survives
calcium
##occup
gossip
rhin
ramb
bundle
mortgage
cigarettes
##arse
curtains
##retion
morality
##athi
berm
santo
recognise
corrected
righteousness
tumors
benson
##prints
##etz
nostr
pioneering
mcn
owl
defendant
relates
quote
judaism
##iffer
unle
assy
pact
expired
glit
##ands
enqu
pem
harness
1890s
snails
inacc
kry
##omic
compartment
dissert
comparative
proportional
unanimous
wrec
lindsay
riverside
lacks
worcester
teased
patterson
smok
pens
##vial
refusal
throb
clarence
##orus
phantom
disqual
obscure
combines
interval
champagne
trousers
winked
whipped
cnn
indefin
bergen
stroked
outrage
semic
kashmir
risen
oversaw
nou
obstr
grabs
reactor
##umbered
mao
##ieri
libya
psychiatric
flung
confessed
holders
##stri
sweetheart
rental
bella
capped
unmar
curator
##erting
accumulated
dres
450
freeze
endorse
##opa
swore
devastating
terra
uncovered
dawson
persistent
europa
shay
babe
1821
transcription
stagg
inviting
##conn
miche
roared
barrett
bount
quarterfinals
constable
anthropology
fou
123
134
contractor
slovak
emerald
intervals
##isión
alison
gazette
hok
annexed
##manuel
hedge
##isans
upstream
bolton
omar
handic
merchand
bolivia
deposited
hew
sands
clayton
seaf
buckingham
vr
##ometric
czechoslovakia
destroyers
##aul
cambodia
##orman
swam
taj
schooling
triangular
rogue
shear
pillar
catast
mccarthy
destructive
receptors
underg
posting
irene
denial
factions
clap
discharged
splend
unlocked
gable
kv
acad
evacuation
wong
awaiting
##lide
poul
willis
##eys
shipyard
landlord
##agnetic
employs
spanning
lamps
intu
##ussy
##rosse
canber
stripes
travelers
mn
25,000
qa
##eco
coordinate
diabet
duet
puppet
zan
repertoire
footh
touches
nora
cares
logistics
bax
matthews
1.8
markings
veronica
1810
ants
gop
##unc
113
gos
encouragement
jum
yog
scrambled
boil
hardcore
50th
##pace
astronaut
dew
namib
kla
1828
pigs
nir
arches
wildly
flicked
shab
televised
tugged
cautiously
##eday
rach
##oos
chaplain
beverly
##uj
waver
misery
madagascar
lumin
automot
wonders
planting
##robe
kiev
trustee
alternatively
circa
peterson
bryant
orbital
stunning
archipel
##nez
electorate
##ede
reinforcements
assisting
##ogl
pits
enthusiastic
amn
wigg
polytechn
ibrahim
knives
byron
justify
sheila
squat
worries
abdom
bluff
cao
helsinki
##gerald
ravens
hydraul
salad
razor
climax
##alli
scoot
circuits
witches
overc
nursery
fraternity
alk
##atile
approve
rican
dissol
spiders
seals
hare
sorcer
retract
hastings
##elic
extinction
specification
inward
fragile
wimbledon
metacritic
phyl
##atz
antenna
http
brenn
thur
recognizing
##arc
lazy
accelerated
terti
##uber
##estan
silicon
bip
rapids
recruiting
delays
fitzgerald
forear
hiatus
colombian
theo
##byc
rejoined
popul
yi
##onist
brake
suggestions
exposition
ella
violated
laundry
##ighty
##cliffe
evelyn
inadequate
therapeutic
obliged
sinclair
dodgers
tearing
1.4
airports
viable
continuity
commodore
genocide
bant
dispar
kimber
coordinated
macc
gabe
laden
breth
naw
someday
canberra
jerk
##birds
smirked
##uding
xv
bs
showcase
aurora
bunk
haiti
estonian
1824
automotive
tunes
amended
poetic
structured
rin
##ivo
noises
liability
##rika
soy
##atum
##entions
sutton
ping
##opter
trol
winchester
metaphor
normandy
##hee
communism
za
##ombo
mascot
aaa
wrists
ere
40,000
lus
unnamed
laurie
fiery
gratitude
hos
arte
exploitation
mirrors
brakes
candles
separating
greed
discern
hermann
proposition
damaging
counterparts
yanked
aless
canopy
monter
yawn
##puts
mvp
fcc
viewer
01
inconsist
presumed
della
##church
legitim
jacksonville
chero
luna
tertiary
td
pawn
##lis
##base
eccentric
1829
pablo
##chal
2.7
foy
reformation
blessings
recognizes
eps
zamb
turtle
packing
paternal
impat
endow
##semin
##gor
twil
barton
ump
terrorists
condemn
exeter
angie
conditioning
##rays
debates
dumped
##ller
transferring
wrapping
111
paula
excavations
crystall
vicious
spears
dioxide
onset
tes
erosion
tusc
albion
##iban
unseen
stig
posterior
shone
tenants
complain
failures
ais
ranc
iber
envision
algorithms
clicked
fringe
rer
gat
compelled
privileges
wagons
nw
renewal
##iq
reviewing
slavic
brethren
piercing
dl
developmental
scratched
resembled
meredith
##afa
docks
##isphere
twisting
toled
##ennes
zip
lund
##iani
rous
mcd
greeting
enlightenment
confluence
whir
campuses
admits
profitable
mcl
snatched
vfl
processor
dispatched
sparked
inappropri
##ryn
meaningful
recruits
mara
##ombe
displaying
organism
diz
limiting
botanical
encirc
##send
privat
##bys
##jun
kits
delighted
disabilities
ave
discourse
begging
jeep
detained
reddish
##gard
suffix
deflect
columnist
aviv
##imar
##bycidae
lambert
lope
pue
##isal
obligations
similarity
watt
exams
##riot
unstable
procession
rup
remod
exiled
cubs
##90
toast
behaviors
permits
##kok
elijah
##outed
miracles
imaginary
ech
almighty
shap
messiah
batch
astronomical
unpleas
flats
outlined
##ecuted
pratt
testified
minorities
communion
becky
labs
repeating
orchest
##thening
6,000
mash
pending
floods
##stop
jerome
angelo
magistrate
commence
##lov
biom
wheeler
disag
ellip
abdomen
archdiocese
appointments
nt
awak
evaluate
##unts
seeded
transp
randall
sene
reminiscent
kah
cdp
flute
##ipur
besie
fry
stretches
preparatory
shred
fuselage
phara
stamped
##oting
investor
##āb
macro
philharmonic
kamp
biting
accounted
yourselves
aye
wiping
disco
irving
pork
destinations
cripp
hord
mixt
concludes
scorp
ses
trumpet
wi
aph
2.9
frankie
interfere
corporal
hiring
03
##ucci
rebrand
quarterly
polls
updates
specializing
vikings
catastrop
dioces
momentarily
cerambycidae
ropes
##ardy
exports
##ako
knob
pavement
vijay
brittany
proto
congressman
theres
incur
laurel
jacobs
sapp
##rology
whiskey
##jee
incoming
kathy
hash
deutsche
evaluated
vocational
ub
blankets
reproductive
assignments
praising
oppose
##iversity
##elet
papua
guiding
##abh
styled
equilibrium
pearson
carlisle
behave
1813
##osaurus
meadows
fading
iconic
##ès
##ologic
##erner
shor
metric
meh
cue
pertain
dripping
##agara
mutation
ely
tasted
baghdad
diabetes
archipelago
##imited
obligation
aura
pug
deform
bowls
disappearing
camel
lys
##eer
##ün
##ptions
gdp
unim
treason
alcoholic
cameroon
verdict
destined
crawl
matric
bols
gunn
displacement
##into
asym
ideals
anatomy
hurts
##hampton
bmw
dresses
outc
##gang
##rak
idi
cartoons
node
stag
coeff
abdullah
als
biot
recount
pilgrimage
chit
montenegro
##mish
modification
latvia
introduces
30th
##aris
pathways
curb
##headed
##icles
interred
##uke
occupies
renewable
##mc
reminds
francesco
##shit
##iters
socialism
pedestrian
perennial
gasoline
patents
##uni
collectors
conclude
abnormal
deacon
drunken
prefix
oscill
mafia
forem
flavor
archie
anterior
suffrage
##raine
saxony
splitting
nationalism
analyzed
rooted
borne
##cé
null
##oven
##heed
overly
##istle
practitioners
jod
lass
stray
##illas
potent
investigators
banker
moaned
merry
kolk
kub
##vation
partisan
intently
clive
originating
palat
##uca
reproduction
plots
upside
omaha
jesuit
##than
##aurus
seym
cbc
installations
##zzie
derivative
luckily
pseudonym
ferrari
neglected
feas
stronghold
allegiance
sacks
fascist
hymn
spokesman
preaching
reacted
preview
2.6
##lav
eugen
mits
##eration
rapha
swimmer
24th
krak
fuj
restart
gen.
advertisements
incorporates
división
discarded
vu
debbie
hearted
minist
connie
suscept
satellites
christina
potato
definite
arabian
wavel
sasha
headache
currents
##wara
batsman
##kill
tighter
rover
nonprofit
yosh
hemisphere
allot
prolonged
aly
chuckle
erie
grandpa
lowering
residency
geometric
##ctica
famine
##rish
rebuilding
1818
##sein
regulate
cube
dudley
einstein
dreamed
seren
smells
midwest
consuming
theirs
##iol
##iona
cret
devised
ether
coke
##ellular
calcutta
identifies
##ández
1826
ecst
disgr
toledo
rendering
fertile
geology
shelves
anchored
noct
adverse
sustainability
rouge
##arya
raped
##yss
disguise
manch
icy
lj
grunted
definitions
tand
constraints
awoke
##fest
##nings
newark
caliph
nightmar
cair
magdal
mattress
twilight
aden
urs
lenin
blaz
##elius
zel
##orah
alto
tenor
abe
imam
grasped
urging
##keeping
gis
manners
informs
slightest
##ondo
residences
nause
##des
hartford
moisture
dispersed
hooked
basel
##anging
##akov
kut
starr
thud
metaph
kc
sq
seller
eur
deliberate
relent
gina
icc
##fields
neon
##zburg
pardon
##eros
##vian
hauled
gamma
hust
exceeded
nordic
giles
shivered
##alypt
staggered
impart
distraction
uncontroll
brend
latt
malayalam
unpreced
wires
volks
relieve
##akk
syndicated
melting
##ibald
communal
darkened
skinny
broncos
dissertation
##hus
##imeters
paradox
expose
competes
arbor
dexter
##uddin
memoirs
carlton
unprecedented
##keep
protector
sylvia
flushed
##lessness
##plex
pitching
inscribed
vera
##ancies
pom
##wings
##ís
quiver
##oise
heroic
viking
hyderabad
bureaucr
masculine
##inet
##electric
buchan
keyboards
##onshire
smirk
alps
##alom
amidst
##lot
consume
antis
vista
reinst
fits
cov
policeman
cald
herc
lineback
explores
220
tapes
aggression
##armed
barth
behavioral
midlands
##path
slogan
unpleasant
glances
garcía
paige
keyn
##onda
##fil
tres
prud
partnerships
motive
##jor
neural
##uld
lü
sunrise
extraction
scripts
absorb
##shaw
##hot
ecology
decorations
rains
hassan
##kas
boiler
undergoing
##ppa
newscast
torah
statewide
salis
yas
##uria
periodical
gloucester
teasing
ducked
pasc
lizard
crisp
gerard
lottery
semester
##itte
edith
torment
bambo
zu
logs
wither
roma
burd
paler
##dington
cunningham
##utory
##werp
weaver
lining
pressures
networking
thankfully
spans
aleks
catalyst
descending
humour
mouths
academics
entirety
viktor
lima
##ospace
wallet
enduring
herr
prominently
posters
stereo
##hab
phyll
cameo
packs
shuddered
##ilated
retains
yep
harriet
nets
deficit
jubilee
harassment
##hya
workforce
infamous
packages
multic
biod
valencia
inherent
##onomic
comprehend
tehran
kras
wür
##omatic
intentionally
scouting
##fred
sights
unrelated
affordable
##amar
zack
marvin
possesses
electrons
martine
postponed
munster
thump
ancestral
mould
##heimer
1816
bung
##hof
caled
##rí
abbas
donovan
fingert
thanksgiving
uranium
infring
nielsen
sunder
##ishly
antarctica
decommissioned
probe
schne
premature
tae
zagre
tempo
romeo
suv
infections
prostitution
prick
##ecd
##osphere
deadline
halloween
pia
##oj
markers
1806
veil
mortar
degener
hanover
vegetable
antwerp
defeats
hammond
elves
airways
gaza
##icacy
investigator
attracting
##inski
lena
##thor
economically
aiden
patriotic
##angu
0.3
stocks
doyle
3.1
weary
##quest
soviets
titans
figur
##ods
##oes
weed
##ische
wrestlers
stove
fortifications
22nd
reciproc
mhz
cocon
modeled
bolog
##emb
licked
extracted
exposing
undefe
titular
jealousy
doming
loads
pyth
##ppen
##iscip
coher
combinations
mog
operas
kale
kant
##elles
schmidt
honorable
##quit
cherokee
750
mountainous
isles
apostle
clearance
choked
oaks
packet
execute
narc
cain
tl
johan
torres
compression
slice
melanie
capita
marquis
genetics
randolph
decomp
vc
##wic
blaze
filing
implementing
##ilingual
ort
cooler
ammon
##anson
beacon
basque
oracle
protr
robbie
macedonian
##eric
explosives
barack
socks
averaging
slick
reminder
##athic
protoc
vengeance
baba
storyt
cocaine
refined
genuinely
silhou
scars
aide
nos
instituted
diminished
vowel
corr
nigel
samp
humorous
wig
prescribed
stunt
##amba
productivity
seize
kuwait
judith
secre
argu
alberto
1827
##bral
##grav
chooses
worrying
ducks
kicks
isabel
23rd
plantations
sympath
grouped
undefeated
##version
tying
##inished
babylon
neurons
bermuda
worldly
granting
fritz
barker
gymnastics
##ontinental
basilica
reorganized
harmful
##assic
convenience
112
dangers
foreigners
apparatus
bangkok
invalid
magnus
coincidence
zagreb
turf
solidarity
arlington
##orable
redempt
reilly
damien
lorenzo
groom
wn
invari
ridden
contingent
resembling
rhythmic
vintage
pretended
softball
patrols
damasc
parachute
dots
bhut
##gren
shelley
librarian
probable
aerospace
speculated
##witz
privy
##ogram
cadets
compulsory
disappointing
1.0
vet
jian
copied
sincere
##ilyn
foremost
levy
commuter
osw
clues
redist
##75
2.1
##onte
gb
1.7
parap
capitalism
aure
xu
wines
andhra
##dar
enric
pau
prompting
thirteenth
discoveries
##inch
firstly
##iae
spilled
fantas
##dling
hellen
lopez
augustine
pumping
##alore
lana
okina
shortage
ache
energet
1870s
##tre
fixture
##araj
tapping
interpretations
dictators
pbs
1819
##aea
nicarag
erupt
fidel
jeremiah
mathematician
temporal
duel
clutched
vie
1,0
coventry
antique
nodes
##34
mutant
laurent
overthrow
eclipse
pencil
1793
chamberlain
frantically
plea
rosal
ignorant
scur
believer
##frey
##32
whispering
pharmacy
cardiac
naomi
junk
sticky
crushing
parsons
brat
vl
##kirk
lans
cables
corresponds
jain
augusta
analyses
strokes
ceramic
abused
5000
bloc
dominate
cheshire
admiralty
thankful
kidnapping
scrapped
##grove
holden
quir
eliminating
readings
hats
undisc
applicable
stif
imprint
captains
jenna
dresden
peel
pest
rails
ensl
learnt
gould
##obe
nl
resurrect
oll
hing
##rance
prost
locking
faç
isot
stares
bonnie
homosexuality
##otta
##raf
transfers
hermit
middlesex
##iciary
encyclopedia
offence
caravan
clans
tile
angu
wyatt
sammy
##itha
sped
containers
kip
##ellan
issuing
salisbury
1822
unfinished
hail
##zzo
extensions
cracks
racist
flaw
##phal
backgrounds
onward
1801
##ashri
schl
piers
##zzi
1803
##maid
bronx
wb
fleming
texture
underm
vagu
warden
steele
##mor
##arton
brigades
expeditions
thickness
cows
##ustomed
simmons
hairy
internally
muddy
flot
donor
unav
shareholders
hick
cooled
biochem
ome
esther
camden
rudolf
courtesy
weber
tunisia
kand
threaten
kak
dundee
##ibi
##afe
certainty
preserving
tsar
subordinate
##amiliar
marijuana
dias
1809
##grass
corpus
##soever
neatly
##thel
cleans
##dled
##girl
##nis
ahl
dob
precursor
##dorf
modules
endure
annoying
##opl
mih
newest
rusty
concerto
mou
committing
unlimited
maturity
reconstructed
excavated
confusing
discusses
turbine
sabot
debated
correlation
surpassed
norse
ensured
proves
##antis
nominal
colonists
cola
nathaniel
##adation
##inkle
microphone
calib
warnings
gc
elisabeth
squares
dalton
venezuelan
##hea
outre
bullshit
forested
ambush
advertisement
els
replay
##tingu
drone
engineered
##ovic
lacrosse
weston
katrina
mirac
1823
exhaustion
plag
transplant
erotic
02
miriam
departing
josef
gaps
estr
heartbeat
propose
antoine
quran
pivot
hunted
brenda
staging
weaker
racec
birthplace
monopoly
arter
bt
honoured
encry
proclaim
beers
dunn
seldom
heap
dover
rosie
sooth
commenting
apprentices
##thal
tanner
avant
crouched
unfamiliar
rpm
clutching
carmel
negl
##ounding
##ulator
disciple
daniels
hue
gaw
##atu
ambition
##lude
desirable
lifts
emm
christie
ryder
psychologist
phrases
hanna
brim
gradual
darted
luft
sheridan
wak
##xx
##squ
pounded
chow
priory
zoe
discount
attic
raff
dwight
endurance
mantle
gujarat
wester
sly
infrared
voter
seymour
icelandic
hbo
distribute
##ál
blockade
overha
##rique
extingu
supportive
combust
braves
pius
maud
enjoys
pv
mari
##itism
ló
māori
pulp
waterloo
employing
##soon
skies
hc
noel
crem
##bahn
swollen
sall
capp
gps
nai
pickup
reviewers
cheaper
westward
##isen
wherein
unanimously
recapt
byr
kitt
optimal
finances
niss
wanderers
##etus
shing
kolkata
abbott
bulldogs
weighing
airs
apostles
promotions
pueb
precinct
grazing
##iatric
unchanged
##pectives
ashton
promoter
germanic
##intosh
bb
mating
identities
programmed
caret
damascus
cong
bests
homage
barrels
motel
##ndo
dismissal
mckin
examinations
##bred
winged
boarded
nell
fucked
evidently
##ilde
investigative
psalm
##emi
howe
aristot
hilton
cron
judiciary
recorder
illustration
zhou
unlock
##pez
intercepted
sixteenth
drifting
hogan
taxation
stormed
tomas
anast
censorship
eponymous
tubercul
fk
wavelength
micha
ethiopian
evenings
numbering
squeal
eul
energies
rath
alexis
colts
##pta
polynom
administrators
##chet
1817
##acia
orchestral
dissemin
##hawk
metast
pleading
mornings
inappropriate
sarc
wein
witt
##aan
schwar
trolley
australians
eminent
für
kier
thieves
rama
pasha
suther
tau
meanings
hoy
uneasy
physicist
holt
complexes
prow
domest
demean
pushes
dolls
kaiser
topp
bulletin
cannab
##bley
##ód
reconciliation
vacated
jockey
nikki
solicitor
dadashri
raphael
qualifications
sells
constructing
##ignant
##gf
sundays
alterations
incar
surreal
rite
citadel
daring
notebook
##obia
chau
elaine
freddie
agreeing
bundesliga
fauna
##ept
uzbek
zap
bowler
globally
pry
##esia
##asses
surplus
migrants
##elope
oceans
##owitz
1808
prehistoric
##ucker
nude
weaving
dimit
garner
##ahar
lament
##mac
barred
fourteenth
mysteries
##elo
opener
adopting
torso
representations
aluminium
flock
presided
muss
senegal
reasonably
##alach
miy
clung
petrol
##abouts
closes
##isciplinary
prevents
##aret
##cat
domes
captivity
châte
sanctioned
##oder
chis
fixing
mormon
##boats
bunker
packaging
1600
conceal
afric
bulb
##imi
disast
patiently
##green
halluc
sacrifices
kerr
damon
referenced
spends
dividing
woo
tidal
intest
specialists
encourages
sci
hobby
maze
immin
##haven
falk
peruv
objected
xin
histories
coastline
nib
humb
discomfort
##nc
##quito
biographer
abig
exchanges
kart
birch
transgender
emmanuel
splin
boiling
angola
##mere
1798
1794
mongolia
innovations
suppression
masks
bamboo
##makers
hert
stranded
surfaced
dit
concluding
incarcer
flush
##integr
##erville
roofs
##heid
##asaki
bahá
##just
bé
giuse
rajas
blackburn
punt
bending
wingspan
obso
viewpoint
consultation
galway
deception
intensified
endured
appealing
mets
perkins
frey
incarnation
townships
jiang
##onge
fas
airplay
imposing
induction
servers
congest
betrayal
1795
eliza
huang
fascinating
forwards
hansen
kass
soprano
demonstrates
##uters
payne
unite
recruitment
depiction
verge
chast
horrified
kyr
forts
definitive
bally
kitty
##oids
strands
workplace
sain
commentators
dye
apprehens
lilly
##roads
ht
ria
scenarios
inevit
bahrain
turin
renovations
##unders
catalan
gazing
enforced
1805
##mod
corv
divisional
1811
customary
assumptions
monitors
monumental
hereditary
fatigue
realism
osaka
wob
comforting
mammal
nightmares
##non
alternating
conferred
##udge
1807
superb
tributaries
##ße
shō
##oco
cory
coats
drowning
chalk
rca
##vez
rahman
hydraulic
##ynt
stevenson
##imedia
##ahi
forge
alam
ges
bestowed
calculations
hess
worms
hawth
boul
charities
heirs
##baum
undoub
divinity
##odied
##iston
legged
fluct
stony
enfor
circled
flaming
1,4
utilize
rupert
##leading
wem
typhoon
panther
peripheral
cds
1804
emirates
sprang
redevelopment
maus
bangalore
governorate
hastily
mozart
##fax
##ifiable
flanders
##otti
epidemic
fris
comprise
dissent
fundraising
##igrap
##esque
##ribution
##uga
likelihood
chol
##andez
myers
gaul
prestige
##imet
rodriguez
nazar
nile
##sta
billed
arbitrary
cocked
##glomer
wrestle
demonstrating
##omas
lópez
degradation
##lift
sinister
skid
eun
paddy
myc
flynn
prisons
##rar
strengthening
alternatives
1790
ashore
##frame
beir
petals
ranged
inequality
gerry
undoubted
sperm
falcons
printer
clair
landmarks
brighter
whatsoever
expectation
blushed
##uti
recol
##ación
statutory
synth
captained
banana
arrogant
marxist
harley
motions
functionality
lv
concession
kett
alv
##orp
pops
announcer
tailed
awakening
takeover
expresses
clips
thrill
bhag
explode
satisfying
obsolete
methodology
persona
glee
constellation
##hov
##iseries
##acking
kus
forged
subscrib
carla
claus
secondly
booked
##99
outf
smoothly
jaws
jh
underwear
horace
##ysc
rodney
confid
politely
eddy
cyclist
duct
naut
sensory
kannada
##oton
denying
##ogues
oo
lax
instinctively
euros
fortunate
symmetry
succumb
cafeter
dd
alfonso
thess
greenwich
confidential
dani
nicola
##adia
##odus
claudia
brushing
habsburg
builders
wors
arb
determines
##ité
creators
hardened
reliability
receip
turret
emission
guin
moody
##inters
assumes
mok
questioner
baxter
polytechnic
uniqu
smear
##ayat
oversight
3.2
##arat
tuned
disreg
pean
finalists
##leased
darius
orion
assurance
soda
shaken
disintegr
grounded
tuberculosis
##aldo
rabb
forensic
arises
miniseries
enthusiast
perspectives
##akis
chatter
recipients
##making
invasive
arguably
leaked
goats
##apo
hopped
##itian
pharaoh
##iard
##yo
marse
ada
lb
computational
pors
emi
vigor
redund
dmit
##ochond
milo
predecessors
sutherland
##acious
unhe
subdivided
##sbury
draped
walton
bram
undertake
stutt
logging
breeds
##jet
jas
unused
hailed
schu
centred
offended
herbs
león
##stant
##aise
simpler
proliferation
##imal
documentaries
prospects
dillon
motives
reins
angular
pierced
contests
coated
##37
gases
latitude
akin
patronage
warmer
receptions
overlooked
medall
##adan
##ân
##uling
signatures
##flix
ragged
coul
replica
marilyn
porto
lenses
greenland
buchar
admiration
aval
outpost
subscription
honesty
sonny
fascinated
ordn
offset
daven
hawkins
diagnostic
chandler
inflicted
utc
responds
flanked
ausp
##etto
sulfur
gong
exported
underworld
stables
capitals
campaigned
##inians
ballroom
mourning
vapor
aft
nz
setup
injust
dred
cellar
dissatis
williamson
spokesperson
crooked
proudly
tents
##opus
mattered
goddam
contributes
vivian
unreleased
flashes
mandy
##iad
asshole
emigr
lugg
andreas
oven
##irs
cannes
gonzá
##herty
regency
wizards
tiffany
cep
sanctions
immunity
eagerly
regg
wwf
giuseppe
conceded
##fig
lester
##ophys
butterflies
disagree
desperation
##ook
##arra
robb
##acio
remed
winced
reigning
demographic
##burst
isaiah
##ogenesis
##luded
contradict
complaining
bucharest
predator
malik
cartridge
geneal
merchandise
hym
rainfor
cracking
lafay
bray
disconn
cautious
disturbance
trance
agn
rumble
simplified
accusing
##acker
zinc
antioch
longing
imminent
yank
##ène
untr
bologna
litigation
steals
##mington
purity
costly
spared
yields
##edict
sta
corridors
judah
cv
1792
paraguay
lein
openings
remembers
perceive
argy
renault
translate
mccart
desktop
##qi
freelance
hanc
killings
##pen
discs
odys
brewing
rift
##inement
mole
yong
focal
accreditation
cynthia
builds
wolfe
##asmine
graff
sleeves
azt
harlem
francisc
pinn
mounting
chun
brendan
enzymes
pins
nurt
poisoning
famed
hospitality
##eaux
engulf
improv
l.a.
comet
fy
db
kav
afor
songwriting
##ipedia
##written
##function
restless
##hne
paperwork
##antes
##alay
strap
##amoto
sire
embarrassing
infectious
simone
##ande
rory
lafayette
catholicism
relinqu
surm
waiter
##eria
paralympics
favoured
dic
vocabulary
manipulation
postgraduate
ipsw
tuition
majors
façade
##itud
gonzález
intox
phi
antagon
edit
wills
sipped
##iw
rewards
vip
supermarket
photographed
##icates
##udder
sams
colloqu
tuls
greenhouse
pledge
fearful
tee
differing
celestial
xia
ministries
##imon
validity
tempted
patt
hague
defences
fiba
fingertips
##fm
anita
vaguely
screwed
ipswich
fresco
quotes
restoring
orchard
compelling
turmo
mayo
##atl
kurdish
carth
##mia
stit
lasts
exaggerated
lest
irritated
1860s
shuffled
##anu
scenery
1200
uneven
mgm
jewels
drilling
monasteries
insists
##cole
mab
crocod
barrow
pacing
gior
nationality
##chez
jennings
##lv
iq
accustomed
converting
friction
cobb
angus
flemish
240
schum
buyers
terribly
fishermen
kes
ninja
outreach
##heus
##n.
metam
muffled
dap
upt
traps
dams
bans
leng
directorate
fungi
farmland
knots
##vre
bp
fon
poked
patroll
italia
austro
propelled
seventeenth
rae
##obil
emerson
exclusion
lifes
fischer
switches
licenses
tastes
activism
nih
cache
##ück
oun
##oki
ios
netflix
##hara
lagoon
posture
multitude
educate
abyss
shun
pept
mechanic
guerrilla
##44
##oran
countered
liaison
pries
marcos
periodic
##ipei
burm
undoubtedly
earnings
endowment
peck
mustang
handles
broker
higgins
namibia
pathetic
disastrous
cruisers
piled
1,6
##anity
venetian
bounty
medalist
stricken
ordnance
##vik
philosophers
1802
##estation
niz
severed
frigate
allâ
gripping
truman
stuttgart
urine
rubble
rapp
##amination
antig
tudor
jah
cara
300,000
inert
##ibal
mosaic
tractor
steelers
amass
muc
chong
spouse
bryn
1776
electromagnetic
proclamation
fluores
knuckles
freud
alias
##hesis
translates
royalty
tsun
wharf
impose
owens
visibility
explanations
pinch
lexington
charism
specifications
registry
##orthy
##atore
comfortably
ornament
repay
sparkling
retrospective
advise
garde
nostrils
##urgical
aragon
pras
chiefly
treaties
##ilis
chatt
caliber
castles
treasures
peruvian
timeline
obsessed
1789
lennon
12,000
branding
linebacker
lucifer
attorneys
slides
taipei
secretariat
substrate
incub
affinity
commandant
cheating
fridge
##ported
rainy
##acey
superst
excavation
arid
##athlon
turmoil
##ihad
26th
avi
dispens
##rosc
scholarships
belongings
doctr
fost
hunts
qué
elbows
shovel
hopeful
##liner
##owo
valerie
racecourse
kov
oman
planetary
utilizing
##ères
sikh
##39
unsc
##icho
brandy
engraved
interception
##xton
matth
amendments
##loads
bere
stacked
oxide
decreasing
##bas
honduras
abigail
ions
##ogo
blot
retailers
joc
disguised
astronomer
1900s
rivera
popularly
manipulate
mls
sabbath
standings
sunderland
uv
impulse
##pes
afro
1796
somalia
rost
sucking
baptized
faults
sermon
##pora
skipped
vitamin
rasp
notation
enlist
peggy
sina
infinity
acceleration
humming
temptation
theresa
anj
masked
indirectly
treacher
##ementioned
redemption
reverted
defect
##losed
##mind
advertised
##burger
##forth
lawson
absorption
bunny
congregations
danielle
schiz
jelly
##ophor
jut
recollect
hulk
lowland
sentin
sidd
instincts
weights
np
warships
##ietal
het
mona
pumps
braun
##arthur
clifford
80s
clone
emphasize
respects
cafeteria
dungeon
qualifier
packers
panicked
protocols
lively
bavarian
analyze
veto
thoughtful
cody
unpr
avon
accidental
denise
hovering
attacker
beginnings
entrusted
aforementioned
merging
weiss
hof
bouncing
thornton
##acs
coma
nests
respiratory
ghet
frightening
simulcast
priorities
bryce
illustrator
ws
amnesty
feng
##lywood
objections
pioneered
nuns
ostr
apples
filmmakers
##hound
##andan
##yth
bonn
relies
infants
exceptionally
grapes
luggage
hindwings
tails
inactive
depended
ls
christchurch
dire
threatens
beatrice
moons
barked
dane
earthly
##occupied
tid
cyrus
deities
coss
kindly
okinawa
directory
mystical
mesh
wasting
##icy
waived
rugged
psyched
##urian
skirm
elise
tao
emblem
##bid
##whe
thal
##icle
lorraine
gov
chancel
crawling
ricardo
##otrop
groove
##phones
##undy
ston
aidan
linen
vows
oblivious
inlet
ks
eisenh
insec
unbeliev
spinal
anytime
##flower
whirl
dough
glove
vines
suffers
##court
##imps
literal
ceylon
oro
##coe
##agher
upheld
medina
27th
pledged
1799
terrifying
contemporaries
uci
chet
##ders
whor
mosquito
prospective
kron
##itored
cans
lucia
contractors
##zza
##yla
0.4
##rt
##uben
artem
consulted
joa
##iton
beirut
##hf
swat
##umont
traitor
##ío
vibrant
buchanan
##kt
smithson
dramat
intermitt
##vous
aquarium
liking
deprived
##space
##gett
feudal
comrades
slab
coconut
ordinance
burger
dipped
haze
numerical
##his
bahn
##alysis
obe
unfor
troupe
lizzie
havana
olig
barns
attribute
culminated
##lake
directive
agon
sigma
talbot
sega
allocation
receivers
audit
1850s
coding
bowie
pseudo
deserves
curiously
kris
laurence
induce
filthy
2,500
choral
fifteenth
plo
outdo
esteem
fron
chevro
intellectuals
##otion
noticeable
cooperate
dizzy
##wid
veterinary
scam
##eliness
idle
mesa
cus
creed
##86
##antan
understands
nope
rn
spies
taliban
kinda
crossover
gala
dz
snout
willy
squinted
swirling
inhibition
lankan
##termin
nept
panor
wakes
joking
beads
concentrating
clint
conject
accomplishments
suspicions
bucc
##icable
sandwic
priesthood
exploit
##park
oddly
nassau
monastic
##forward
composing
manned
forgetting
##bilt
temperate
lahore
##onga
##300
flux
joanna
##acity
glaring
orchid
realms
hancock
newslet
fungus
propulsion
samoa
drac
intending
camou
assistants
bland
##afi
stellar
odor
buyer
##omans
originates
##fordshire
lough
##aeus
evolve
##dc
##arius
monitored
obstacle
##jas
compose
narrated
rocking
remot
wooded
latvian
##icuous
slug
unwanted
taxp
defendants
jakarta
8,000
##kef
##urgy
onc
caro
premise
searches
handy
beautifully
vort
paradig
ridges
tombs
keller
mozamb
1700
ransom
mba
stealth
werewolf
scold
yielded
growl
##emma
outlook
cannons
kirby
##bet
margins
minus
v8
tric
assam
clutch
guarding
requesting
kj
whitt
perpetr
caucus
##bern
diner
dramas
ideological
##iterated
piles
careless
aeronaut
purchases
simplicity
reminding
principally
procure
integrate
nok
##umar
assaulted
bewild
##tham
diagram
grossing
xii
railroads
assassinated
##rc
chern
gunfire
brus
battered
centennial
cancellation
impending
sup
flexibility
banc
objection
tis
quicker
##roke
genoa
taiwanese
obedience
##azzo
sherlock
goa
cents
competent
inad
rests
##ographically
militant
flashlight
broom
##ahon
##iards
forc
fencing
discretion
burmese
savior
flattened
##.org
baked
wigan
##ophil
##31
##abar
antibiot
unification
dorset
spontaneous
parc
scoff
preach
camoufl
johannesburg
##iyah
hurricanes
holog
tenant
specialised
coughed
tablets
1797
deepest
2d
welcoming
##yre
apologized
##agus
##uh
armament
standardized
##dock
baton
fend
critique
edmond
##words
##ayana
culminating
schw
cutter
##byshire
cannabis
1.9
##vance
thum
sten
bows
##waters
woven
distorted
monkeys
sedan
ramsey
goodman
curly
bosnian
adel
##bat
canadians
erad
tink
##olate
chemist
pets
lingering
antenn
couns
norms
concurrent
##icans
attackers
confronts
intricate
proposes
embark
grains
exhaled
sniffed
##onson
panzer
mitochond
characterised
plank
##df
bravery
undergone
restriction
killers
##atorium
exits
##ssa
adrenaline
gó
##ré
exasper
##avy
farmhouse
##entin
mayer
guts
##opt
joked
prak
##trans
threads
antiquity
magician
unpop
##mering
energetic
hypocr
##echt
reco
ponds
ankles
peering
mercer
eisenhower
archaic
badm
attendant
drying
tranqu
resorts
desmond
preached
##ographies
earthquakes
##breaking
mediated
chestnut
interrogation
recipe
##ondition
metabolism
bihar
portraying
semifinal
vendors
dai
ascent
thrilled
expeditionary
bibli
detailing
discrete
considerations
primera
mansfield
inspire
rocked
rené
hamm
martinez
##screen
wetlands
##writers
kilk
adaptations
cassette
royals
adorned
fundament
fibers
persisted
##idable
confiscated
##ndale
hain
limerick
glist
candidacy
indicator
kiel
##yt
boiled
glowed
exercised
disasters
penis
treats
subl
thereof
##thorpe
##laren
busch
lyrical
multimedia
traction
prosperous
peb
postseason
kathleen
fda
landings
slamming
hates
##itations
hercules
morp
seeming
avid
chevrolet
brink
raft
frantic
derbyshire
awaited
monaco
joints
furnace
vaccine
deborah
glut
##ska
##ollah
incorporation
crusade
berkshire
catcher
textbook
splash
initiate
spreads
alist
##week
##atan
remarkably
dashed
businessmen
biodiversity
##nor
tally
proceeding
microw
myths
immigrated
##adian
chewing
recalls
tongues
illegally
vanderbilt
##build
##yang
dispro
mentioning
carcin
syndicate
ledge
hostility
randomly
quinc
##tures
arising
chil
crosby
interconn
chromosome
yus
lush
##ometry
m.a.
vaughan
remembr
chung
bae
lara
scrutiny
imagin
giul
##brates
karachi
denomination
treatise
nhs
##odont
italians
transitional
##aye
trait
overturned
clarks
prejudice
pg
##emaker
fined
bites
##now
tossing
frogs
starving
oste
lori
##umbles
amphibious
rotter
concurrently
sleepy
sioux
pga
stephens
restrain
arrests
relics
probation
northward
hides
brace
reassuring
exodus
truths
detectives
superfic
wrinkled
handicap
##ulton
shelters
hugging
disappears
unison
##64
bourbon
transparency
inevitably
28th
##än
everett
embroid
##islav
ironically
naught
badminton
jasmine
paz
homework
fries
headmaster
insights
##riz
subscribers
backyard
khor
constitutes
husbands
villains
gros
##yi
shudder
entrepreneurs
orgas
##idia
commitments
fertility
##rological
##uns
pauline
keel
sorted
##yar
##gem
trembled
stationary
mout
bartender
ff
slur
shipbuilding
kneeling
foli
patented
nue
leuk
waterfront
viceroy
sok
wary
casa
##uala
hose
ubi
sampling
generators
samar
##loading
inhaled
baz
cess
##has
pronunciation
rites
balk
castile
##olla
cyan
snarled
lionel
persia
impacted
fielding
##quisite
braw
nagar
seniors
segregation
cavity
wii
painfully
stirling
illustrate
bridget
appalach
fiona
gee
neoc
backdrop
sliced
trud
rai
lucius
schwart
contributors
ery
snapping
verde
wikipedia
##rans
##aryn
deleted
lowe
imports
bacterial
bia
exceeding
##urable
melodies
##53
fowler
homo
transforming
nex
circulated
parameter
envisioned
##link
château
fixtures
lagos
##olome
andes
commando
##aires
denominations
tz
caress
disagreement
intrigued
suitcase
zü
inquired
welles
nolan
byrd
inclusive
##hawks
mohamed
aesthet
serena
guam
jav
##rae
hayden
substituted
phylogen
##grave
rf
dn
##hift
prover
prof.
##âm
litter
gond
philanthropist
manny
whales
perched
linguistics
fuss
perme
proprietary
analytical
lach
jee
##wear
gour
##fied
pains
supplying
hasan
clashes
mai
##ège
fetch
capsule
niche
reissued
saloon
##uper
cites
eastward
redesignated
##emberg
pilgrims
conway
kost
gangs
omega
niagara
##ipes
phar
elias
gibbs
newborn
cortex
alistair
labelled
farn
simultaneous
##öm
yaz
penned
revive
headline
establishments
##otam
hots
##ār
jonah
inspiring
##horse
appetite
chie
ars
viruses
prediction
bikes
localities
wheeled
tav
##adder
furrow
cromwell
tarn
decreases
dilig
scowled
mow
cj
mandated
##ivities
curry
halo
livingston
plagued
reggae
enam
rumours
superiority
finch
imagining
counseling
deported
annih
garment
##league
relying
##plan
plunged
gaut
penetr
chimney
forthcoming
ariel
penguin
cac
##ahaw
periodically
hardest
audi
##upt
trader
compressed
danube
bait
pumped
zhao
enclosure
##echnology
##arro
screec
stras
jewell
##oway
fren
3,
leans
skysc
counselor
caretaker
##omen
eruption
vowels
barney
amir
accessories
elongated
bernie
gilles
lynne
influx
railing
barbar
##kets
##atas
unicorn
5.5
perfume
##ouded
clasped
willingness
liang
overlap
radial
beeth
forfe
retreating
hussein
utilities
aching
phillies
reliance
##guez
250,000
##hile
anz
1775
forearm
browne
rink
audrey
declares
selecting
##yu
lifeless
africans
bn
invaders
spirituality
##jak
apache
jude
elephants
axi
##illary
overr
sb
pussy
flir
plunder
poz
denounced
intervene
##odor
mandarin
glucose
loth
isis
propeller
##ffer
ascended
rale
brennan
rhetoric
elk
whitish
vind
fluor
##dor
islanders
approximate
naj
guadal
subgroup
folds
bethany
burlington
roaring
vog
implicit
jensen
dismantled
mali
omitted
curls
grenade
boycott
##66
beethoven
swansea
##ński
##vest
laos
##dem
##chool
roch
porsche
fireworks
##vil
staun
##rr
strapped
raging
1791
ida
cookies
liar
explosions
bakery
bollywood
bubbles
hillary
visually
##adors
donors
flyers
graveyard
slack
roh
uri
inauguration
reprinted
flotilla
##bright
mav
##jing
courtney
dunes
gaunt
sass
manifestation
continents
##ounce
slowing
crossroads
##isson
motionless
wholesale
##endra
surgeons
cascade
##uate
canals
motifs
abort
conversely
erection
lening
efficiently
pedag
bothering
##millan
zurich
glacial
mitt
grumbled
plc
racer
protects
ventured
whereabouts
weir
##zzy
annoyance
nichol
specializes
extr
unsett
royce
corpses
namesake
subconscious
cinn
phel
derive
bilateral
suzuki
reelection
bidding
susceptible
blacksmith
undercover
adject
neb
enrich
indec
yv
boone
porcel
boll
involunt
creepy
ingen
abl
diversion
manifesto
disgusting
##proof
physiology
grinding
##omorphic
0.6
invading
aristotle
litt
belts
##qa
verbs
##astically
exploited
dü
initiation
domination
excer
##people
invites
##ulla
profiles
##strom
##had
serum
creep
covert
gid
shale
dac
##pler
7.5
marketplace
##patrick
forrest
90s
addict
crucif
skyscrap
wrought
nymph
nicaragua
##orio
supplier
voluntarily
shoreline
collaborations
schwartz
efficacy
tt
subjective
variously
immac
subset
neville
##ffe
correction
jackets
billie
pneumonia
dah
##itone
evergreen
df
syllable
##erated
rotterdam
lea
##fta
impatient
mys
instability
kall
zig
dhaka
ratified
willingly
crock
byrne
##uble
nicely
loops
negatively
##leod
elig
angered
browser
sü
remnant
diverted
beetles
##hta
122
excurs
warmed
walled
rodrí
shocking
problematic
sails
rockef
zhong
algerian
##cott
attracts
flourished
harding
awhile
forecast
oppression
##try
newcomer
dependence
jurisdictions
fusc
##jack
pto
erica
muj
vect
##vich
gertr
occupants
empirical
swarm
##ethyl
applicants
hangar
calculation
ambient
fortunes
leinster
cinder
blackness
##essive
insignia
economies
combustion
##pie
cruelty
hesitate
confirming
obsession
transporting
##lio
testify
fangs
rodríguez
besieged
##ucer
ottomans
parole
redesigned
##alk
virgil
schneider
##gets
kyoto
intersects
moderately
karate
##fan
##jani
undertaking
travellers
accountability
serbs
commend
yuri
psycho
resonance
projecting
irres
ged
kib
eut
reservations
yellowish
parental
##lew
doo
carly
blinking
##olini
bilingual
revolver
olivier
charting
dislike
allâhu
crafted
northampton
caucasus
tung
ensued
masterpiece
nearer
tulsa
nug
alloy
blurted
rowan
gide
medley
melodic
squeezing
suk
researched
needles
distributor
digits
hostilities
wolfgang
60,000
watercol
stut
poisoned
100th
leningrad
excerpt
ached
turtles
favourable
barren
tolerate
unpopular
kro
##pike
hortic
paolo
shrubs
illegit
hoffman
outdoors
##coat
dishon
mocking
pis
natasha
tangled
tm
trivial
dwellings
colombo
turbines
0.7
siding
wardrobe
entrances
fools
121
##0,000
diplomacy
prostate
contex
##ansen
justification
kemp
lending
##vd
acquainted
dictatorship
lick
brightness
commandments
catalonia
bathing
bolted
hydroelectric
grimaced
##olulu
skinned
quincy
fills
darts
##eee
##uxe
##shad
enig
fulfilling
amin
slaugh
bain
reorganization
dusk
dahl
2021
interceptions
sr.
##bad
formidable
contexts
coincided
puppy
ferv
torque
##elier
##dings
29th
satirical
gloucestershire
inspected
gestures
xiii
persuas
gigantic
amalgamated
shaky
##lifting
weighted
clinics
penetrate
orphanage
smithsonian
acquaintance
invade
beech
eph
occupational
delivers
traveler
gallant
twenties
hilda
lingered
ngu
elevations
graft
carriages
salute
##ético
coo
humphrey
##onies
consistency
rebranded
3.3
ornate
whore
genetically
honolulu
awakened
bair
##opsy
vibration
smug
##lé
##ád
apps
##mart
defer
stride
pictured
##wu
insol
usd
##was
kidn
##oza
loy
feroc
reyes
confuc
##author
sheltered
alban
##iantly
rockefeller
seminars
umm
subun
wille
conjug
hark
carac
inclin
incidence
crucifix
apartheid
disgusted
wilts
remembrance
urdu
##jana
##cio
siberia
eco
liberated
statutes
richest
clifton
##step
polly
telev
ample
##chaft
##pal
1,200
blasted
rematch
pérez
leonardo
creeping
selections
##km
multiplayer
hobart
##volent
pulmon
rajasthan
hillside
suns
ambitions
battleship
##ibus
tramway
sey
saus
hubert
##enching
semiconduct
##fell
quiz
hep
preferences
risky
echoing
nationalists
collided
comparisons
inhibitor
esk
heidel
##jon
##abo
##ābād
##estown
redeem
happier
weakly
hormone
shelby
spotlight
outst
##worm
hq
##lla
postc
waits
vacancy
matilda
zimmer
defects
investing
gild
undisclosed
banquet
berger
##ayev
scarce
advisors
bordering
stanton
buk
boliv
unemployed
peach
##hews
##esi
reputed
##itates
merlin
minimize
calmed
nichols
monmouth
barre
##utable
routing
negotiating
imperson
healer
aggrav
calculate
##ithm
activate
huntington
coincident
moroccan
streamed
io
doris
spawned
nicky
derivatives
swind
surveyor
separates
##iating
##odrome
##isman
##itsu
nish
seism
70s
militants
1780
nutrients
jeop
werner
rog
nath
kraków
oswald
foam
hindus
##zew
coil
ministerial
retal
deluxe
bourge
envy
academia
straightforward
traject
##alle
##anka
slay
40th
wedge
awkwardly
vowed
loneliness
lact
exert
regin
esper
compensate
lure
endowed
disagreed
norris
lowell
uttered
sewer
skeptical
##orial
contention
brisk
##55
##liked
cullen
soothing
choke
recycling
tory
cyril
wakefield
yen
disliked
##ikk
stout
##text
cheerful
presley
0.8
grill
perpetual
mozambique
saunders
practitioner
sj
extrav
ambrose
relaxing
blouse
bedrooms
nostal
balkan
plato
severity
##ogeneous
##quel
josephine
##asso
martí
telem
descript
sergei
##cile
coaster
deficiency
visibly
##iku
nikolai
vanity
cathy
masonry
##odynamic
kt
bullying
elle
repuls
unreal
blooming
litre
##enthal
zambia
nyc
possessing
##vals
valves
baths
presiding
northumberland
##lasses
imply
tha
bret
qaeda
école
##wave
viola
##about
scattering
##ylie
brist
beamed
punches
##aston
7,000
##htar
##arium
prevailing
drains
ala
grig
##anus
spanned
hanged
retaliation
jacqueline
gail
acknowledg
enraged
toug
faust
irvine
##casters
##osi
lincolnshire
algae
fins
confederacy
porcelain
##jour
salvage
hoover
analysts
mccartney
thirst
participates
melanch
ryu
wembley
oj
radioactive
##store
epithet
evenly
grossed
underside
sloan
foothills
leopard
eyelids
dukes
affirmed
##vic
grizz
daim
excitedly
lyons
bolts
aper
barrage
kilkenny
mapped
bounce
bodily
##olves
perpend
maver
luigi
ayr
tipper
botany
vernacular
chieft
armist
staple
##rond
chey
estuary
##araja
metamorph
##riment
eerie
appra
sadie
##due
poc
terminology
campaigning
coloss
isil
##ogie
yoko
axle
##ongo
xiv
certificates
carving
parcel
teleph
clinging
perpendicular
psychiatrist
1783
##ppo
bentley
##coal
##mant
##cers
ceramics
perch
cobra
hovered
##mand
jeanne
mushroom
mcgill
credential
tuning
amazement
anand
##uously
asph
archibald
macau
mughal
tread
steamer
##aland
slain
expo
madd
zah
outn
##worked
davenport
prevailed
accountant
warns
calf
coca
vogue
classmates
borneo
strauss
kud
yok
mercen
savoy
ordination
scandinavian
fines
guessing
rhythms
ler
cooke
sighted
checkpoint
reassigned
portrays
samurai
luxur
amos
dartmouth
britann
spice
asymmet
unbeat
alvin
presentations
hiber
alarmed
wildcats
owning
emerges
forgiven
digitally
##rab
regress
koh
##ieg
makeshift
hooks
boer
inaccur
turnpike
##idas
sek
##weh
lattice
botanist
intends
unint
truce
##opotam
##haran
fueled
raided
brandenburg
tanya
luftw
##ctor
moose
##assium
##ongs
admire
##oryl
granada
hierarch
artery
tn
##ahs
##balls
##guards
##cal
chaotic
fors
##kop
longitud
flickered
##acha
traumatic
##aneously
freshly
cookie
installment
proportions
provoked
sacrificed
thwart
disciplinary
ghetto
token
##ignon
##unga
ornamental
infirm
recession
##byn
dill
pertaining
##imated
shalt
llan
##uming
fatty
staffordshire
jamaican
##liness
wired
revital
terminals
conglomer
suprem
eligibility
##arina
enjoyment
spectral
gypsy
##heny
successors
choreographer
dinosaurs
relocation
bandits
##wagen
##fle
truss
hangs
assemblies
sweater
biographical
seap
backl
dessert
##odon
avengers
pornography
##esville
evolving
unac
accession
samson
romanesque
bounds
wilmington
uphold
muzzle
chatham
icons
thé
bruises
bohemia
suic
doomed
muster
snack
jong
kappa
ara
kettle
juniors
constance
burk
detain
impaired
shaman
organizers
humidity
##46
acron
warlord
attire
tumbled
reflections
blurred
omin
colise
ismail
intrins
maw
revolves
dispatch
notch
encompassing
liberties
shia
abusive
kernel
a1
madh
haley
##hti
bodyguard
loser
vishnu
##aval
famously
##fin
##opia
rods
potassium
bordeaux
guinness
mercenaries
consolidation
blush
##nick
dehyd
termination
mün
cretaceous
adjusting
##omac
##agin
##issy
filters
strains
##comb
##ieces
contamination
##obiles
saxophone
##lene
ness
rubin
slated
blackpool
##nica
lars
stirring
revis
cylindrical
metaphys
##ags
##ibo
##mberg
1,8
unpredict
6.5
cancers
benefited
injustice
battling
mono
restructuring
macarthur
bremen
roadway
conflicting
sput
repro
expulsion
##brough
##inka
photographers
faculties
domingo
##idon
renee
resentment
luftwaffe
flared
edison
parch
zürich
##mania
airstri
sill
ét
pigeon
wm
regretted
creations
kis
admitting
##ailable
vega
newsletter
##weed
pedal
fumble
##alyp
guerrero
##kaya
bruins
braced
organist
cumm
hazardous
quay
foyer
ezra
##listed
##eras
##utive
##ighton
corey
menacing
##ulam
atlético
violinist
u.s
##inged
incapable
snick
interventions
1788
prostitute
reese
breton
josie
accumulation
reinstated
irrational
smoked
instrumentation
heidelberg
michaels
folder
tactic
transports
cornelius
jaguar
robbed
0.9
##47
shep
##jevo
belmont
multin
##arts
fs
igor
withstand
stature
virtues
##dain
siem
canonical
fanc
quartz
manic
##hun
benches
proton
irritation
rejects
stalls
collier
allevi
herod
##angi
realities
cosmos
raleigh
attested
barric
schwarz
morse
undes
urgency
raina
ethnicity
fuk
amounted
billions
kish
ornith
prag
mommy
petra
wt
unopp
paste
##opsis
##ević
sympos
dresser
baku
sunglasses
thorne
vineyard
spherical
##ancip
charcoal
morale
unopposed
rotary
abandoning
illegitimate
remedy
shog
noir
hai
affiliates
contaminated
copp
##gram
facilitated
emails
##aghan
shareholder
##athing
##urnal
pistols
hymns
##arthen
adulthood
tus
spheres
queer
##oxide
softened
seizure
##ocytes
sniper
unnot
futures
hubbard
##áz
49ers
purported
gradient
dazz
improper
courier
##olish
respectable
bourgeois
##ibu
baff
shutting
mastered
##mental
heroin
dwind
outlaw
plut
bruised
lds
##amic
redskins
##gill
##lectic
taw
pouch
textbooks
zac
barge
##ushi
chewed
rooft
dharma
cardboard
principality
mcmahon
unionist
mystic
lillian
##ingen
ruther
youths
laksh
##zt
gideon
medicines
parallels
cottages
zy
##zb
paralympic
outstretched
alej
paso
inadvert
sobbing
##struct
wrecked
harmless
manipulated
buffer
tandem
rotor
fluent
farrell
jad
bohemian
piedmont
asa
fiercely
unjust
emancip
handc
acquitted
russo
slovenian
chrome
technician
lookout
##vester
antagonist
sellers
somali
##fight
redd
dismay
restrained
rbi
##lâ
##ça
rendez
psychedelic
##annel
gland
noisy
audible
yankee
nour
pune
olga
ignition
emptied
denny
##ointed
31st
graffiti
rushes
edo
bres
prese
grange
blazing
luca
congregational
cerebral
unmarried
stink
entom
derrick
soloist
commodity
vad
wich
gravitational
suzanne
##icht
##etown
gund
overhaul
irony
##moon
transf
policemen
annexation
meta
##ttemberg
polling
colonization
refrigerator
reint
pint
propped
espa
microwave
tup
draught
conan
paragraph
##ouk
##shield
collaborator
tyne
pey
vitro
thumbs
garments
databases
blinded
pasture
capitalist
strolled
gruff
dangling
##broken
bumped
differed
pter
##eti
camille
playful
##luent
##nington
yesh
applause
lola
bombed
injected
physiological
fraz
iphone
livery
dt
##hoe
notified
convinces
archaeologists
phoe
torpedoes
remixes
walkway
##iery
barang
##arine
satire
appell
dice
framing
gett
ail
convex
foliage
atroc
bargain
##pole
elastic
peacefully
codex
##tender
futur
##rolog
chew
210
arbitration
katy
amor
verify
lays
oils
unconstit
corb
rfc
##onds
##ixed
extermin
##ographs
##alypse
##onomy
researching
preseason
waltz
squash
##zin
rm
##otiation
ensign
disclosure
smuggling
##yder
elector
floral
upgrades
prevalence
implant
stimulus
presses
convened
bhutan
##identified
##ová
echoes
ching
sunni
diaspora
quo
##oughton
occult
##ibles
antip
wilkinson
panting
strawberry
pietro
inflammatory
giro
densely
##.30
tunic
##kw
thi
##fires
##orient
ruthless
inhibitors
tash
osborne
wiltshire
fumbled
230
trusting
steer
##oum
saxoph
gasping
##ptive
a3
vhs
toad
regimental
canary
lave
brody
rainforest
kung
sanche
formulated
journeys
sadd
aq
deposed
puck
siren
communicating
##qua
hib
riz
halft
dolphin
garth
##oire
adhes
qi
titus
thad
stripe
malaria
reno
kō
centimeters
misty
spire
steak
conducts
tottenham
idols
announces
uae
scratching
myrtle
##lander
sow
ineffective
chrysler
locke
prefers
verified
650
peek
chandra
phosphate
murals
arranging
##ík
reclaim
adjustment
alz
viad
antit
criterion
peeked
paperback
clapped
jericho
##asim
##gev
overview
fec
decks
cheryl
equest
bick
##ulas
runoff
##akan
reginald
hens
demos
athena
becca
giggle
kow
everton
illum
cello
recons
middleton
ville
stumbling
##grin
coherent
epist
afflict
chickens
swo
recipes
pomeranian
##eworthy
cheers
livelihood
rb
##rama
##igate
brune
headlines
autobiographical
refurbished
thoroughbred
vase
partisans
mounts
toni
stil
colling
neph
spars
barbados
pk
cuc
contend
disruption
steaming
jagged
132
medications
asphalt
fulton
württemberg
##emouth
salesman
agitated
delic
mausole
##otto
moths
cassidy
disadvantage
sensible
kensington
501
aik
fah
trenches
tentatively
indict
speck
lindsey
psal
nasal
vangu
routinely
lectured
converts
incentive
##zone
mesmer
practised
hostages
crumpled
mutually
errone
##atal
commemorative
reintrod
tendencies
flare
##erun
##hama
richie
stevie
gs
freem
maure
yin
poe
dynamo
##yen
##ulo
compromised
1,7
slash
furnish
roe
erod
tucson
disrupted
goldman
enjoyable
pursu
burrow
deposition
##grown
anom
processors
mcgu
##rail
cag
defiance
chiang
mimic
pembro
playable
instructors
bursts
barcl
distinctly
kinase
armistice
noteworthy
ajax
strengths
hypot
brahm
offences
frontal
violating
remotely
##95
scaled
ltd.
dei
watkins
sparse
bravo
##human
sanchez
pentec
obit
homicide
criticisms
ripping
furnished
kuala
epip
klaus
ptole
##stage
cinemas
meridian
aspen
metabolic
rabbits
fuscous
authorised
mccoy
unaccept
anarchist
##asta
##alls
differentiation
eduardo
##escu
faw
baj
gertrude
turnout
blinding
neared
##ovsk
overheard
lacey
##inde
brood
dilemma
##itter
deple
blitz
pog
deteriorated
myri
modify
encoding
##oulos
cleaner
łód
preserves
marseille
leroy
privileged
narciss
analyzing
swelling
aba
ironic
mith
hitter
koz
##ière
schizoph
oasis
weeping
bearer
lamar
revelations
furiously
##nae
seminar
hostel
remaster
##tiles
coliseum
circumstance
overseeing
skins
nissan
prosecutors
tsunami
meek
detector
nf
chatting
gems
wrestled
##estones
sync
1800s
crank
commemorated
##eka
##bil
mounds
uzbekistan
rv
weaknesses
generates
jihad
baháʼ
kali
##orc
refract
playboy
protestants
amé
axes
##isitions
impressions
hesse
ngo
geo
valle
slipp
psychoan
asserts
corinthians
sanitation
primetime
ernie
unequ
wien
ethel
##wey
electrified
tiber
##oldt
hearings
##rem
##ouring
algebraic
implicated
progressively
eri
buoy
frowning
subdued
libertarian
graz
wilde
1840s
modular
barking
fuzzy
pett
schoon
epa
augmented
##bish
boyle
##rification
axel
repos
penguins
##ozo
mythical
composure
furt
towed
tipperary
##ńsk
clarinet
##gion
schizophren
neolithic
garland
insur
slit
weeds
pentecost
sewage
lois
bios
kb
intensely
##inting
sharma
positioning
foil
silas
swap
uncover
##aths
headlights
seaw
bahamas
convict
envoy
remorse
yahweh
##gos
readiness
incompet
charlton
resh
transverse
mecca
hicks
hilar
tilt
##inck
nicholson
prist
##dog
disres
furlong
rehearsal
gow
vulnerability
anecd
panties
stylized
nrl
##cia
łódź
riff
advocating
centenary
stroking
spru
hanson
coincide
##undi
sensual
hodg
adaptive
townsend
multinational
köppen
reneg
settler
##sman
quasi
dora
hammers
pans
mous
##beth
unlaw
##planes
symmetric
apocalypse
cary
1787
peterborough
havoc
##nh
ascension
communes
improvised
integer
sequencing
benton
pep
bedside
accusation
relaun
removes
tosh
realising
##pill
myra
huddled
secrecy
jae
nike
quantitative
1777
##aille
pamela
hooker
tobago
belarusian
attendees
jang
atari
quin
hott
ety
baseman
reconcile
##65
negotiation
putin
martins
walnut
##zyn
handbook
flores
bw
rendition
nudged
##igated
dand
chords
fairfax
inconsistent
amusing
##uran
downhill
morphology
ravi
caldwell
vanguard
chag
misch
##lich
##acom
##ancer
shove
spurs
tamb
synonym
feminism
obeyed
progen
##orical
##ivist
shafts
mackay
##gger
insistence
pivotal
rupt
manoe
quaker
patio
discreet
intervened
fitt
##umps
troph
strath
blended
taped
##uen
mald
ew
prostitutes
hana
osh
qin
mohan
prescription
bism
api
startling
leaped
fath
riga
anonym
fluids
##inate
surrounds
amr
##helial
daytona
eats
smelling
technicians
##yah
##lag
##uela
unnoticed
conditional
manifested
frankly
clarified
timor
waterford
##zs
cocktail
lobbying
donkey
skirts
nikola
emery
ij
##uchi
betting
viaduct
##oslav
linger
##combe
##erd
shiv
marches
bully
shootout
scarf
foreman
##itively
provost
dung
merciful
cylinders
550
intro
perplex
spaced
derry
feld
150,000
##rative
oneself
listener
sandwiches
pum
sabotage
dus
tf
amenities
laced
reasoned
downed
countdown
midday
cornish
unconstitutional
##loid
silhouette
kop
olds
##rops
imperfect
##dong
entertained
ligue
cpu
distributing
xvi
##enb
booker
embank
##avirus
brownish
rigorous
diab
sán
clover
labr
rodgers
convictions
##agements
haunting
alexandre
##acements
reggie
beaumont
dixie
paradigm
remarried
paj
disemb
births
âlâ
assay
culturally
rutgers
##yat
statesman
relocate
dirk
##omat
##river
moldova
##mos
schwe
greco
##idine
therapist
paranoid
monsoon
textiles
mariners
worthless
pines
shag
scotch
diocesan
husk
straits
repeats
nect
##awan
enchant
yeh
perceptions
seine
##owe
schul
##enton
harrow
ventilation
##olor
entang
drones
equals
hinduism
##edin
ej
comparatively
jax
insanity
bianca
sergio
##brush
metz
impati
mcdon
theologian
nure
splits
schen
credibility
bonding
scalp
cupped
fret
yad
motorcycles
##urp
reckless
##redited
explorers
neglig
schles
indicators
swayed
thriving
heed
##taine
bly
ike
lett
ambiguous
##utant
vp
pascal
plaus
ochre
intimacy
mek
una
brothel
có
sims
lucian
towering
ung
smoot
maddie
catering
sánchez
predictable
stacy
fanny
retailer
eaves
offenders
grouping
worshipped
##iland
skinner
twitched
registers
crashes
implying
teatro
suppliers
halftime
surprises
##hrer
striped
anest
quentin
regeneration
bala
sinai
##akar
autism
hygi
quota
uy
##eting
shrewsbury
zag
##cut
drastically
##moor
spines
rotated
flaws
emphasizes
madam
grocer
precedent
demet
napoleonic
kear
assemble
chargers
garn
oph
aztec
oceanic
spilling
woodlands
vivo
informing
tapest
circling
gatherings
educators
rancho
##ël
doe
má
flap
salaries
##85
playhouse
fashionable
antony
consciously
ecosystems
rebellious
indefinitely
aleksand
swings
dop
sentinel
routed
##ström
reproduce
##ivism
##jara
snugg
mayoral
##erton
nobleman
jays
climbs
peerage
conveyed
odi
##itius
differentiate
unbeaten
discouraged
relativity
enhancing
disqualified
##upe
lunged
choking
toulouse
##width
commotion
churchyard
hygiene
hk
spikes
lao
stench
mccorm
polynomial
##alde
robotic
collaborating
ieee
kag
cradle
aero
belize
sums
gloom
shaun
atlantis
organizer
enrique
milestone
qualifiers
intentional
gallagher
heroine
##asu
##achim
unbelievable
bowen
gao
müller
monoc
relevance
interpreter
categorized
pueblo
greedy
recognizable
##staff
fru
emperors
storytelling
anguish
humility
malone
surveying
analogous
abram
fuels
predictions
lucrative
spoil
vance
blizz
garg
rei
warmly
resolutions
sino
interdisciplinary
trapp
broadcasters
arrond
vertically
lash
hints
briggs
##orna
donnell
restraint
devoid
odin
jace
widening
throbbing
nal
tek
archaeologist
navigate
brab
nis
automobiles
sheld
redisc
fascination
##iak
resil
goodnight
acknowledging
uncondition
aperture
vitt
stagger
##ém
luton
etym
trunks
landowners
##cases
rwanda
##ayn
potomac
criticizing
reproduced
jaff
##ossa
pitches
borg
burgess
##levant
##akable
cah
thoughtfully
lille
iuc
ramon
slips
condens
commiss
##illac
swell
conditioned
1778
##utz
refrain
purdue
baptiste
##iidae
burgundy
##aroo
migrant
cram
##pop
iro
reflective
henn
puzzles
avalanche
spoiled
binds
retali
skim
proponents
forese
analogy
fuckin
1784
outburst
cohes
penelope
sindh
foll
jok
recalling
martínez
tessa
asi
accol
##igny
mclaren
shankar
liable
oldham
actresses
marshes
133
sweating
alloc
##bride
parkinson
grasses
adjunct
devin
arrondisse
transgress
aroused
secession
cray
pondered
bise
##fork
##itya
guan
##guer
destroys
peril
galaxies
extrac
##lehem
freddy
gubern
crook
stacey
shrink
nausea
doses
shortest
neurosc
##estro
fia
kaf
draining
bok
##onium
justices
gris
eust
irrelevant
##trak
rejecting
##pid
##obs
pleasing
saff
gears
##bras
rumor
conserved
orbits
uniquely
concessions
##gaard
manly
##mentation
excuses
toilets
guth
##adena
burt
##ominal
eliot
puls
burgl
horseback
outsider
##enes
highlighting
coughing
cinematography
pulitzer
contender
dickinson
lom
lawsuits
alain
riches
conspicuous
exploits
modernist
##wife
##enance
trough
edna
bethlehem
stainless
chairperson
dib
baggage
kri
inputs
##anova
sediments
popping
chub
##iferous
nand
yells
intol
##42
##andum
incorrectly
mouthed
lama
landfall
godfrey
demeanor
galactic
##nity
circulating
balancing
splendid
mard
paddle
fuji
##kowski
kramer
notions
detriment
mixtape
a.k.
##imus
stimulation
sarcastically
##onsc
grasping
kön
crete
vegetarian
undo
##keepers
jewellery
courtroom
connell
##yst
underest
##mary
versailles
##chs
disclosed
fisherman
supplemented
antisem
timet
##wei
terminate
ubiquit
impatiently
coarse
levant
##ffen
benefact
reptiles
gamble
resett
whoa
broadband
##vale
libyan
hesitant
##adin
nesting
usb
cheered
applaud
simplest
aristocratic
uploaded
fused
stav
ceded
carolyn
##orting
libby
rattled
casualty
daly
monarchs
fours
##berries
bittern
gom
speeding
goddamn
##psons
naturalist
cassandra
stallion
distinguishing
acquisitions
imped
twenty20
crusaders
aeg
populous
schedules
mckay
tensed
assyrian
engagements
3.7
sponge
beverage
disposition
horton
tracing
uninter
subgen
snyder
verand
##rels
cact
chloride
vigorously
##.20
stalled
modelling
marquess
bingham
##rants
separat
fabulous
##ilon
goldberg
collaborate
##mot
agr
mused
resurrected
landslide
antibodies
edible
messy
surfing
##arg
specials
poké
adobe
abuses
ying
authorization
unnatural
##heon
foley
paces
talmud
tyson
becker
##ivorous
baking
ordeal
##bly
shivering
ull
foe
minors
oxidation
thirt
##atio
breakup
moul
saar
preferring
denote
quer
kp
pointless
dotted
saturdays
lenny
s.a.
matthias
perrin
bastards
3.4
selena
pach
##ikos
##ruff
mongolian
unacceptable
universally
##obacter
eaton
skeletal
equestrian
scler
trespass
enslaved
unavailable
##mantle
unaff
##paid
blanche
liberia
captures
chanting
##otent
manoeuv
##imm
foundry
##phs
##lit
depictions
##ús
##urations
eject
outsp
battled
youthful
##enk
flirt
stratford
fingern
vectors
trams
generalized
misleading
metropolis
flickering
ames
baja
albu
yorker
##ribes
alderman
shrimp
capacities
cinematographer
middleweight
retention
radios
donate
cured
rufus
carpent
optimistic
gü
mace
questionable
luxurious
##lop
yid
guangzhou
denotes
complementary
befri
louie
coax
##corn
##kenzie
skye
malawi
stairwell
telecom
zor
womb
##jal
unfav
nadia
hoc
petr
##atable
disdain
chunk
lull
##mount
punching
1781
cheltenham
##88
fernández
impe
forcibly
rhys
immaculate
coasts
pillows
urb
incentives
inflammation
tik
##ayers
bowled
cypriot
auspices
kru
sash
authenticity
pn
straps
softer
##iera
##retto
dictator
orgasm
##eshire
##áil
frail
##nesia
calculating
disbelie
javier
##ulia
iucn
doubling
coordinating
##entia
grassy
sarajevo
1830s
corp.
disregard
##usz
smashing
gareth
saras
##ocative
messengers
strasbourg
##rophys
overrun
zheng
##uo
juvent
bai
posing
exiting
hearth
reigned
sears
paramed
jesuits
fiat
usl
dietary
hiss
pediatric
wreckage
cursing
##joy
fluff
moff
irwin
maltese
##seys
grub
mistakenly
payload
##garh
blooms
herz
##vable
##adar
##chus
roommate
fracture
ante
ambassadors
coating
adler
grunt
apopt
detach
evidenced
labrador
shik
tromb
trusts
heightened
lore
paramil
bitterly
##dell
diaries
overlapping
doctrines
cheval
000
evas
rund
midfield
louisa
typed
dreadful
superficial
##rafted
utrecht
3.6
protesting
orchestras
nautical
directional
alerted
admon
haus
##upon
robbins
shaping
##cus
matte
squads
phosphoryl
avenues
signaled
##qui
wasp
julio
balkans
##tan
lodged
compil
flinched
sark
pancre
lh
lastly
honeymoon
tann
sevens
seag
expenditure
khz
penetrated
leverage
nipples
##eped
dí
lordship
##jit
ingest
boulders
##raman
harvesting
ballistic
appalachian
huck
compton
##bull
##ignment
##ikov
225
medicinal
ily
functioned
trunc
flipping
liturgical
interacting
bursting
gubernatorial
carv
60s
cout
prepares
adolescent
formulation
##fur
unbear
inconven
examiner
##issible
thicker
booklet
volkswagen
aroma
predominant
mausoleum
vans
##onyms
cartel
induct
1782
inverte
endorsement
murdering
launches
unexpl
roost
eyew
artemis
tod
apron
horr
popularized
hurriedly
originate
mesopotam
anxiously
pandemic
apprehend
dend
##owell
anatom
incompat
evapor
tripped
moira
stalked
curl
caller
##umann
swiv
inadvertently
barony
morales
congestion
woll
unpredictable
##sal
hutchinson
xiao
psychiatry
ballads
cait
stiffened
disrespect
sparrow
insignific
peacock
licking
initials
milky
casp
marv
acronym
tehs
phoebe
grassland
##allo
acetyl
##alsa
busiest
convergence
lakers
cfl
typing
inexper
rutherford
welch
intercol
##ayo
131
##77
embracing
chores
spectacle
##ugh
##nard
mids
corm
##otypic
doncaster
##atur
andalus
goldsmith
##ergic
astonished
buccane
##asco
longitudinal
mens
##robi
slater
##rowth
tyre
galile
cinematic
inquir
##édé
mori
sexes
remixed
plotting
sweaty
reeves
##zhen
sirens
palestinians
##sov
utmost
bombings
mule
sweetie
superseded
cabinets
tyrone
collaborators
indist
warwickshire
turnover
junct
cabins
memorandum
wight
windshield
highness
romney
penetration
hush
##anse
modernization
deco
inclination
reinc
seminal
spind
gentiles
mina
divides
glazed
merr
##rally
##urous
intercontinental
maize
nouns
mait
##udh
hormones
ea
##swana
absorbing
fuse
##buck
lockheed
berries
ceil
landowner
insurgents
fibre
consonant
scooped
##ionage
diffusion
swirled
barrister
owls
##bn
replication
assessing
wally
##icher
ict
320
wilder
eel
regulating
python
neoclass
wex
##awak
horde
hagg
grapp
graphs
laguna
inns
spaniards
fronts
hoch
##dn
curated
declan
mischiev
cô
emitted
apprenticeship
##ifferent
wichita
pathology
##ák
greenwood
##aldi
sich
##inated
##ilah
##kien
czechoslovak
##iks
##ulence
##inkling
garlic
wry
parlor
taut
upro
abducted
taft
tamar
experimented
professorship
subsidiaries
hepat
##.10
martyrs
unidentified
organising
playfully
examines
sprung
orioles
gulped
bem
scher
holiness
franciscan
zed
crot
thrott
cyst
stokes
slots
amtrak
##ogly
glimps
massage
prototypes
hui
f1
siv
diagonal
mauritius
alejandro
novelty
ushered
##ór
shre
atheist
##querque
gage
scoffed
stung
password
footing
pearce
trac
usaf
cupboard
correlated
skater
empow
nood
##idis
aubrey
pah
unauthor
egyptians
pentagon
clearer
##banks
caterpill
diaz
buzzing
humiliation
4.0
##hani
punjabi
fluctu
orphans
choreography
enthusiasts
##49
##aina
exponent
felipe
robber
parchment
buds
humboldt
pious
camouflage
bez
denoted
pamphlet
##ajo
salzburg
postwar
##ersfield
contemplated
longed
fairies
geographically
##del
##opo
simpsons
##fen
sawyer
boilers
dau
everl
cerv
nub
poking
projections
colliery
kenyan
glossy
divis
##ressed
kyrgy
##ileen
barley
olympia
etched
dormant
mosques
sous
swallowing
mute
societal
weddings
##ryl
orator
faul
##nagar
deceit
manifold
keyboardist
bartholome
experimentation
##hearted
extravag
reincarn
fielded
counteratt
annals
palermo
lame
retorted
marries
elevators
bethel
majestic
tomato
##deacon
manually
indy
##kerchief
huts
institut
unpubl
dimitri
vertices
vascular
##croft
forks
parting
bayern
pasadena
hertfordshire
funnel
scheduling
falsely
trajectory
strive
snowy
gritted
##istence
hapl
stale
cereal
##uve
stagn
willed
vicente
##abas
ferries
##uil
engel
hurdles
bids
filtered
spartan
kyrgyz
stockton
dary
priced
##atown
dais
##pering
superstar
jaz
ashe
consulate
zachary
otis
lublin
sama
turkmen
huddersfield
sven
automation
##acons
wren
##gregor
inquis
##67
queue
espionage
dickens
articulated
spacious
festivities
##itives
##wang
onion
kauf
jammed
##law
rolf
mclean
dissolve
blasp
gardening
piston
pokémon
thunderstorm
emigration
ingredient
banished
banning
organise
funer
confinement
##obed
hin
##mil
hemp
cland
eclectic
propagation
semitic
exemption
samsung
##igon
shet
gunner
contrasted
##etric
servic
galicia
##kary
alonso
hike
achilles
##chenko
coupling
perish
burnett
southbound
penit
directorial
depleted
salle
ballots
graceful
erich
redundant
lovel
gladi
geelong
refresh
##tsky
petit
vineyards
maroon
imitation
banging
inverse
compiling
moreno
grayson
phyllis
fulfil
sorcerer
emptiness
spices
##straße
afforded
byzant
symposium
poppy
spruce
mutiny
obes
rosemary
witnessing
grenades
##plate
recounted
konstant
demonic
harmonic
##rosis
knocks
confirms
mccain
bisexual
rye
economists
##belt
inverted
##ppel
##ocular
sermons
briefcase
doubtful
jurassic
damian
pads
tint
finely
tattoos
aspirations
vulgar
engulfed
insisting
immortality
indign
pounder
sami
commodities
ked
##gp
ecstasy
rendezvous
##gic
##öl
disposed
symbolism
kahn
tx
##jans
##leaf
superiors
sighs
moran
##annie
martín
ensures
##vana
refinery
swimmers
enlightened
bracelet
x.
nominees
cumb
smacked
summarized
minh
assessments
vibrations
tanker
beak
narratives
québec
##vir
distortion
trey
runaway
refreshing
greyhound
isabelle
bauer
decipher
residue
royalist
intuition
##ogens
favorites
harvested
tipp
##yam
##hak
orderly
credentials
cakes
gaug
cen
pricing
gangster
panchayat
archers
wesleyan
b.c.
inventions
glider
jailed
ramsay
1785
cheyenne
bony
arithm
hild
colchester
millionaire
benign
rudy
neh
aks
trich
ont
dae
##gt
admissions
##imand
overfl
vertebra
nana
undead
outnumbered
admiring
neutrality
fences
specify
furrowed
churn
bann
poses
volatile
avatar
##igy
buffy
##fried
reluctance
bandwidth
##umba
zem
blat
splashed
4.2
sart
tj
scarborough
toxicity
##urus
drafting
bonded
reckon
patty
likeness
rave
yeast
1774
assassins
haste
sewing
bled
vigorous
socialists
signalling
drummond
seaside
nuremberg
pew
handgun
volta
musicals
##elight
##cox
##obar
c.1
hilt
##adio
knighted
futile
sustaining
sturdy
whisky
stimuli
staffed
shrop
paleont
subsidies
haute
##pherson
fluttered
regal
giggling
arous
##hav
stumble
undrafted
eucalypt
thatcher
cheat
1779
bü
sanity
honoring
receptionist
scorn
##adas
bladder
##orrh
messed
npr
afterlife
uly
guise
coefficient
vile
brewer
reefs
bungal
dominating
sincerity
henrietta
prosecuted
sumatra
fatalities
plight
captives
redirect
##hoff
poisonous
shek
biomed
##rious
400,000
##ugated
152
jaime
slippery
##bial
annette
starvation
rok
shropshire
dazed
whig
interiors
dich
sharif
kilometre
commemorating
flicker
unpublished
tajik
northbound
scandinavia
amassed
##kat
exploding
citrus
corrections
showers
shipw
dolly
infringement
##urbed
stakeholders
##etsu
traveller
##raj
favors
##gé
merits
gigs
alas
plumb
nwa
monstr
pleasures
ponce
fé
welter
##ishers
frustrating
bumps
friedman
katz
chemotherapy
xian
exac
##apuram
repression
lacy
##itical
kinetic
wilkes
heidi
##ppard
angled
contrasting
pausing
morg
##68
header
clocks
northam
blossom
##kick
follower
olsen
proposing
progn
gospels
wehr
regulator
tweed
interl
##olls
antic
protruding
collects
rotting
sculpted
arithmetic
joachim
palatin
##gm
walters
crossings
alla
yea
consoles
barlow
hic
alba
carver
dissipated
suspiciously
guarantees
colder
thine
alliances
meaningless
crimean
jem
devote
trainers
mainline
universidad
goblin
shea
ect
rebirth
exquisite
1770
stomped
jn
counters
plaintiff
metic
sampled
traverse
abandonment
bleak
strikeouts
accelerate
##asian
atkinson
shem
turrets
perez
configurations
systemic
agatha
imb
##onis
hilly
##herst
pollen
bosses
##grad
##ulet
##working
270
3.8
exacerb
##geons
booking
bowman
rumm
archdeacon
##ograms
romero
##iris
sobs
wp
khmer
arrogance
##nen
pell
reigns
micah
marguer
breeders
psychop
refuel
##eleine
swar
hé
altering
shaved
clothed
##woods
a.d.
illumination
lsu
akbar
bitten
shortages
torr
ascending
infuri
outfits
ssr
##itta
insulin
joker
satisfactory
vertex
replen
weaponry
semiconductor
albuquerque
encro
connectivity
alumnus
clandest
cushion
vodka
intercourse
##anza
obscured
jumper
neutron
##respons
caledonia
q.
trimmed
ceilings
alessandro
sarcasm
zab
averages
##ritis
anchorage
thirsty
nomadic
helmets
mendoza
nationale
arv
blizzard
mourn
##hang
parma
##lysis
scarcely
yielding
tramp
linden
parasite
laureate
gai
shill
vald
maximilian
legitimacy
lesions
##bies
establishes
collapsing
##idated
disorient
heaved
emilio
slung
systematically
judo
attent
141
bartholomew
##iceless
caric
outsiders
euphor
hara
impover
connector
judgments
clicking
honourable
culinary
adjustments
bernstein
spi
buckley
rudolph
##eldorf
penetrating
álv
congratulations
intercolleg
passer
##inform
handkerchief
supremacy
bicycles
remastered
lauder
eton
transist
bleed
topping
fjord
pim
devout
##schild
approximation
opium
withdrawing
ostens
##fel
reuben
fractured
glaciers
enthusiastically
##arty
jamal
browning
##emar
unpl
##hammer
cud
stard
sneaking
allowance
gamer
ripe
wies
bolshev
##alp
haf
navigator
hound
libre
alo
spiritually
2010s
intercollegiate
shand
weakening
seville
kendall
##hovah
indicted
babyl
##hetti
untouched
tabern
##leader
misses
mccall
tentative
swirl
syntax
##imov
backstage
pou
##wari
slalom
appropriately
aspiring
##inen
contracting
rachael
unix
##veloped
awarding
reappeared
hec
eras
##olester
1786
branched
coyote
artefact
##vara
brag
pitchfork
sonia
padded
chicks
korn
outgoing
sensations
hooded
thessalon
##erman
##igne
##faction
##ruz
gmb
##akin
alzheimer
##raz
assail
cemeter
##wat
chili
outlines
marital
ebony
lumpur
ghaz
witchcraft
horsesh
seahaw
luk
eyeing
##odeon
delph
fullback
hinted
sultanate
muir
labyr
empathy
downfall
layered
renn
repentance
moniker
280
misfort
aesthetics
mined
groin
gwyn
umar
zionist
shoving
##hir
intra
spectrosc
sainte
therein
cemeteries
rosario
amherst
query
##gau
archery
marino
innate
odessa
streaks
swami
paralyzed
heats
##esta
syrup
communic
flair
relentless
oblique
suspense
impass
oilers
disapproval
##ridges
horrific
##onsciously
##yx
kelley
devotees
gud
disagreements
michele
patton
jehovah
bali
inel
bishopric
timed
##anz
academies
rossi
amphithe
fulfillment
bitterness
nair
musically
shipment
policing
annot
stereotypes
assertion
##iduous
songwriters
saxophonist
spurred
palatinate
forums
greatness
sabrina
lavender
##ulators
armenians
info
rubbish
twir
brunei
hench
communicated
monterey
gou
nearing
endeavor
madeleine
adequately
##oscop
##ovian
stimulate
oyster
cecilia
heinz
protectorate
shrieked
wept
##dler
forerun
bloods
slaughtered
horrors
peeled
otter
##ocl
magnum
##repres
programmer
paranormal
##rase
backbone
forcefully
timely
holstein
sobbed
yukon
chas
##41
mckenzie
incurred
feasible
musket
everlasting
bau
spectator
dp
magna
transmissions
paterson
##chev
kapoor
##nds
flourish
hampered
##iciencies
pulpit
segunda
arun
pax
sorting
kilometer
mitochondrial
##atement
calming
##ontinent
stabbing
dormitory
reactive
mythological
motorsport
##chio
##awar
dealings
dorn
listings
dangerously
sentiments
##mez
denies
freedoms
slade
lazarus
interfaces
ambushed
zane
twitch
perished
graphical
labyrinth
##allah
bois
liturgy
marathi
cudd
fles
asher
##henko
howell
##govern
ounce
synonymous
populace
brackets
##éné
loki
stacks
outspoken
illnesses
##rogate
##rocess
wab
fremantle
palae
##uko
charley
brewers
staunch
zer
smar
limitation
rodeo
recomb
caressed
##viation
leaping
informally
##hetical
federally
obesity
wolverhampton
slang
##educt
ons
abide
recited
steered
woodward
1660
##ricted
correctional
repetition
##ucco
resisting
inactivated
deng
centro
phased
kalam
intrinsic
scri
joão
kee
freaking
hamas
##rots
clasp
cyclists
parrot
laude
##certain
assaults
dracula
##gc
##ijk
smackdown
langley
gleaming
styling
hendrick
##raught
blaming
surged
pesh
streetcar
baza
tō
##etes
##isto
willem
narration
emphasizing
costing
dictated
##inov
plead
rodrigo
woken
vickers
gardener
gurg
##5,000
kabul
clashed
rant
skier
battleships
düss
commissioning
abdominal
##dh
##ós
evacuate
cid
plough
nightly
fidget
comedic
saddam
##stood
tna
xl
##bay
tags
##iguous
decker
sine
lavish
fresno
##avings
fairfield
darlington
debating
jc
trillion
insults
generosity
##igham
tasting
protagon
fior
downloaded
epoch
calam
kamal
harshly
motorsports
unmist
fae
munitions
##american
heft
subcomm
jakob
##atre
antibody
##gling
cet
sper
lange
coded
curs
hunched
consonants
ascertain
canons
trailers
adjutant
disobed
crimea
migrate
condemnation
córd
solitude
transluc
oversized
hussain
zee
laus
contemplating
credible
vt
slapping
misunderstanding
elemental
launder
savi
uhf
teng
yates
peat
sprinted
unlawful
loll
marque
tango
fiancé
marjor
parry
seng
heil
boxers
dino
merrill
prasad
longitude
cabaret
morrow
hua
##burne
##orno
startup
##lys
arrondissement
tangible
malm
thrive
intriguing
ecumen
southward
##,600
distributions
intruder
aggregator
##eau
##san
##kha
##holes
##ulg
sheldon
##onite
imperative
timid
reassured
recycled
ee
boasted
marguerite
stalking
sundance
cheering
frontman
cora
silky
kickoff
thel
contraction
sherry
##assa
catastrophic
characterization
fantasies
carvings
unh
israelites
repetitive
childish
mee
packaged
laborers
dialed
calculus
nickelodeon
rabbin
hitchcock
petitioned
fugitive
fishes
steamed
nano
##opoulos
localized
dynast
##bonne
confesses
##fill
##cars
empowerment
hoot
mabel
##eers
mira
sincerely
cleansing
boc
clarkson
##racted
yiddish
biel
mop
##assi
##ussed
paws
##ät
safeguard
hazards
izzy
boon
##intyre
aqueduct
sneered
1750
heiress
colourful
misconduct
911
bumper
burials
dayd
purpos
pozna
mocked
sled
legislators
sciss
preface
4000
rother
##izu
discont
rhodesia
thinkers
clerical
trophies
silesian
1300
immens
meng
clarify
poole
1400
upbr
revue
mech
##idea
existent
##boarding
overseen
marianne
gird
nie
swaying
vendor
atrocities
suites
sai
ramos
kunst
fad
##osta
miraculous
adept
musa
meteorological
affluent
altitudes
wta
##tus
##owice
amalgamation
patel
rik
momma
forefront
disgrace
bearings
competence
polk
transforms
guyana
ritch
repert
##ifi
##omez
rhyme
burr
##ián
overland
260
coupe
relaxation
dubious
kite
##marine
curv
scarlett
mma
##ndra
congen
tempered
protagonists
microbi
gladly
plausible
tammy
bartlett
##otox
libretto
clade
cleav
cartoonist
shal
##osterone
ama
##breaker
##ogh
yahoo
vomit
##hp
clubhouse
seph
niet
spiel
##avar
##wny
##verness
hacking
granny
pontif
blaine
postmaster
##apeake
ratios
gearbox
tehsil
flawed
precept
stresses
202
salty
reelected
mirrored
##uning
utilizes
mustafa
bourn
##four
##cies
botswana
subcommitte
ghar
willard
freyja
whal
tracts
syed
erg
##aten
kira
##elman
##powder
ester
cocoa
rij
electors
sot
hac
goodwill
gaping
sahara
##zong
franchises
mummy
pieter
surin
sipping
topology
sixties
totaling
adultery
##wo
artworks
mildly
techno
##sembles
quan
rallies
aal
passions
prophes
gentry
centaur
##ropy
skyline
distraught
pronounce
##enham
pais
mundane
gmbh
distressed
poznań
iod
##cup
monty
migratory
unman
aziz
##nius
mushrooms
diplomats
translating
saturated
##avers
unarmed
sarat
palaces
knoxville
madden
ao
##good
janice
thugs
barnett
transylvania
erit
fiddle
##98
squared
##outing
residual
biologist
reprised
stereotyp
embankment
obituary
chesapeake
scept
unfolded
##watch
jard
haitian
retic
directs
basics
accomplishment
205
chariot
worcestershire
procurement
##icum
##ivable
weaken
##iewicz
##iso
extrad
philips
reservoirs
tornadoes
warehouses
bookstore
##bias
ollie
mixes
##olt
mcne
zep
5.1
##shirt
hume
bodied
díaz
controllers
immensely
clamped
beverages
warp
bef
exhibiting
mckinley
conjecture
stade
substitution
faintly
tect
authoritarian
firefighters
hades
oxfordshire
violate
maureen
bellowed
celebrates
baw
insides
weighs
inexp
herring
insignificant
clum
plata
castell
##ipa
masonic
corin
showcased
proprietor
loaf
##eles
arson
commentaries
##angan
predic
leicestershire
##hon
weas
142
boroughs
riaa
opus
davey
##ramatta
commencement
freeing
dewey
fayette
sif
brant
proponent
trojan
ejected
##agoons
##lc
celia
pulmonary
spying
##qing
##aky
feeder
mahm
hourly
y.
infirmary
fenn
jai
bonap
commended
vortex
peanut
erick
##jav
malaya
##uaries
receipt
compassionate
workings
webber
sulph
menace
zhe
mercenary
seahawks
##iovascular
nsa
##elis
shady
levine
nairobi
upbringing
cdc
lilith
tull
ration
stairway
judas
gregg
homem
azerbaijani
turbulent
indent
torches
##game
smel
gunshot
theodor
hö
agg
1763
croy
##hop
plucked
poised
##hui
brach
scab
tolerant
newcomers
smother
disconnected
myriad
levin
pursuits
posthumous
umpire
##lid
##hwa
expanse
fife
sos
feral
##inders
praises
yuc
waterways
unbearable
pauses
manpower
düsseldorf
oceania
##lal
fabricated
ngos
gunpowder
subsided
pb
##aque
teller
mortimer
gemini
sibling
##coon
kurd
brutally
buster
##43
beyon
canaan
excelled
143
drawers
##.25
constructions
##mani
##alez
economical
precar
integrating
##hma
morals
theoretically
passports
hodges
nottinghamshire
##ilus
mele
cruising
briefing
##,800
drastic
milling
southernmost
evaluating
storylines
comune
powerless
hohen
cheated
fundamentally
aac
8.5
transitioned
nero
dungeons
carts
speechless
befriended
carav
martian
##fjord
paramilitary
##lest
ridley
progresses
cinnamon
welterweight
silenced
accelerator
exclude
souven
vaude
río
sapphire
##economic
astonishing
executions
chronological
deciduous
groundwater
menn
micros
attaining
benedictine
helium
harrington
##alone
suez
35th
ape
pitchers
aram
##quist
interpol
iaaf
alta
regimes
shimmering
extern
kitten
##ilin
collateral
##notes
grease
dax
##ilateral
preoccupied
illustrates
centralized
rudder
ignited
smoothed
gda
kild
faa
pixel
##table
inflores
bargaining
monstrous
barons
krie
juno
replaces
##awat
##reated
biographies
uncomfortably
boasts
chh
##abelle
parv
abomin
mussolini
##obo
kidnap
glands
##jer
scripted
pestic
balm
interrupting
interjected
alleging
supervisors
wast
breathless
optics
[...]
